unsigned char asl_training_model1_tflite[] = {
  0x1c, 0x00, 0x00, 0x00, 0x54, 0x46, 0x4c, 0x33, 0x14, 0x00, 0x20, 0x00,
  0x1c, 0x00, 0x18, 0x00, 0x14, 0x00, 0x10, 0x00, 0x0c, 0x00, 0x00, 0x00,
  0x08, 0x00, 0x04, 0x00, 0x14, 0x00, 0x00, 0x00, 0x1c, 0x00, 0x00, 0x00,
  0x94, 0x00, 0x00, 0x00, 0xec, 0x00, 0x00, 0x00, 0x64, 0x1b, 0x00, 0x00,
  0x74, 0x1b, 0x00, 0x00, 0xec, 0x20, 0x00, 0x00, 0x03, 0x00, 0x00, 0x00,
  0x01, 0x00, 0x00, 0x00, 0x10, 0x00, 0x00, 0x00, 0x00, 0x00, 0x0a, 0x00,
  0x10, 0x00, 0x0c, 0x00, 0x08, 0x00, 0x04, 0x00, 0x0a, 0x00, 0x00, 0x00,
  0x0c, 0x00, 0x00, 0x00, 0x1c, 0x00, 0x00, 0x00, 0x38, 0x00, 0x00, 0x00,
  0x0f, 0x00, 0x00, 0x00, 0x73, 0x65, 0x72, 0x76, 0x69, 0x6e, 0x67, 0x5f,
  0x64, 0x65, 0x66, 0x61, 0x75, 0x6c, 0x74, 0x00, 0x01, 0x00, 0x00, 0x00,
  0x04, 0x00, 0x00, 0x00, 0x94, 0xff, 0xff, 0xff, 0x09, 0x00, 0x00, 0x00,
  0x04, 0x00, 0x00, 0x00, 0x07, 0x00, 0x00, 0x00, 0x64, 0x65, 0x6e, 0x73,
  0x65, 0x5f, 0x31, 0x00, 0x01, 0x00, 0x00, 0x00, 0x04, 0x00, 0x00, 0x00,
  0x8e, 0xe4, 0xff, 0xff, 0x04, 0x00, 0x00, 0x00, 0x0d, 0x00, 0x00, 0x00,
  0x66, 0x6c, 0x61, 0x74, 0x74, 0x65, 0x6e, 0x5f, 0x69, 0x6e, 0x70, 0x75,
  0x74, 0x00, 0x00, 0x00, 0x02, 0x00, 0x00, 0x00, 0x34, 0x00, 0x00, 0x00,
  0x04, 0x00, 0x00, 0x00, 0xdc, 0xff, 0xff, 0xff, 0x0c, 0x00, 0x00, 0x00,
  0x04, 0x00, 0x00, 0x00, 0x13, 0x00, 0x00, 0x00, 0x43, 0x4f, 0x4e, 0x56,
  0x45, 0x52, 0x53, 0x49, 0x4f, 0x4e, 0x5f, 0x4d, 0x45, 0x54, 0x41, 0x44,
  0x41, 0x54, 0x41, 0x00, 0x08, 0x00, 0x0c, 0x00, 0x08, 0x00, 0x04, 0x00,
  0x08, 0x00, 0x00, 0x00, 0x0b, 0x00, 0x00, 0x00, 0x04, 0x00, 0x00, 0x00,
  0x13, 0x00, 0x00, 0x00, 0x6d, 0x69, 0x6e, 0x5f, 0x72, 0x75, 0x6e, 0x74,
  0x69, 0x6d, 0x65, 0x5f, 0x76, 0x65, 0x72, 0x73, 0x69, 0x6f, 0x6e, 0x00,
  0x0d, 0x00, 0x00, 0x00, 0x74, 0x1a, 0x00, 0x00, 0x6c, 0x1a, 0x00, 0x00,
  0x5c, 0x18, 0x00, 0x00, 0xe4, 0x17, 0x00, 0x00, 0xcc, 0x17, 0x00, 0x00,
  0xbc, 0x0d, 0x00, 0x00, 0xac, 0x00, 0x00, 0x00, 0xa4, 0x00, 0x00, 0x00,
  0x9c, 0x00, 0x00, 0x00, 0x94, 0x00, 0x00, 0x00, 0x8c, 0x00, 0x00, 0x00,
  0x6c, 0x00, 0x00, 0x00, 0x04, 0x00, 0x00, 0x00, 0x3e, 0xe5, 0xff, 0xff,
  0x04, 0x00, 0x00, 0x00, 0x58, 0x00, 0x00, 0x00, 0x0c, 0x00, 0x00, 0x00,
  0x08, 0x00, 0x0e, 0x00, 0x08, 0x00, 0x04, 0x00, 0x08, 0x00, 0x00, 0x00,
  0x10, 0x00, 0x00, 0x00, 0x28, 0x00, 0x00, 0x00, 0x00, 0x00, 0x06, 0x00,
  0x08, 0x00, 0x04, 0x00, 0x06, 0x00, 0x00, 0x00, 0x04, 0x00, 0x00, 0x00,
  0x01, 0x00, 0x00, 0x00, 0xea, 0x03, 0x00, 0x00, 0x00, 0x00, 0x0a, 0x00,
  0x10, 0x00, 0x0c, 0x00, 0x08, 0x00, 0x04, 0x00, 0x0a, 0x00, 0x00, 0x00,
  0x02, 0x00, 0x00, 0x00, 0x02, 0x00, 0x00, 0x00, 0x04, 0x00, 0x00, 0x00,
  0x06, 0x00, 0x00, 0x00, 0x32, 0x2e, 0x31, 0x35, 0x2e, 0x30, 0x00, 0x00,
  0xa2, 0xe5, 0xff, 0xff, 0x04, 0x00, 0x00, 0x00, 0x10, 0x00, 0x00, 0x00,
  0x32, 0x2e, 0x33, 0x2e, 0x30, 0x00, 0x00, 0x00, 0x00, 0x00, 0x00, 0x00,
  0x00, 0x00, 0x00, 0x00, 0xe4, 0xe0, 0xff, 0xff, 0xe8, 0xe0, 0xff, 0xff,
  0xec, 0xe0, 0xff, 0xff, 0xf0, 0xe0, 0xff, 0xff, 0xce, 0xe5, 0xff, 0xff,
  0x04, 0x00, 0x00, 0x00, 0x00, 0x0d, 0x00, 0x00, 0x06, 0xfe, 0xf4, 0x01,
  0xf2, 0x10, 0xfb, 0x03, 0xff, 0x02, 0x04, 0xff, 0xff, 0xfe, 0xff, 0x06,
  0xfa, 0xf9, 0xfa, 0xf6, 0x01, 0x02, 0x00, 0xf1, 0x01, 0xff, 0x00, 0xf1,
  0xfa, 0xfb, 0x00, 0xfc, 0x08, 0x09, 0x02, 0xf6, 0x03, 0x02, 0xfd, 0x03,
  0x04, 0x06, 0x01, 0x03, 0x03, 0x01, 0x08, 0xfd, 0x01, 0xfe, 0x01, 0x08,
  0xf7, 0x01, 0x02, 0x00, 0xfa, 0xf8, 0x03, 0x0b, 0x02, 0x13, 0x02, 0x03,
  0x05, 0xf9, 0xff, 0xf9, 0x01, 0x00, 0x08, 0x01, 0xf9, 0x03, 0xff, 0xf8,
  0xf9, 0x02, 0xfd, 0xff, 0xf7, 0xf0, 0xfe, 0x01, 0xff, 0xee, 0xf2, 0xf8,
  0x09, 0x00, 0xee, 0xe8, 0xfb, 0xfe, 0x04, 0xfd, 0xf0, 0x01, 0xf7, 0xfb,
  0xfe, 0x03, 0xf6, 0xfd, 0xff, 0xe2, 0x03, 0xfd, 0xf3, 0xff, 0xfd, 0xf9,
  0xf6, 0xef, 0xff, 0x06, 0x09, 0xfc, 0x02, 0xfb, 0xfe, 0x00, 0xf5, 0xec,
  0xfd, 0x00, 0x04, 0xfe, 0x00, 0x03, 0x01, 0x04, 0x06, 0xfb, 0xff, 0xff,
  0x03, 0xfe, 0xff, 0x01, 0xfe, 0x02, 0xfe, 0x02, 0xfe, 0xff, 0x00, 0xfc,
  0xff, 0x02, 0xfc, 0x03, 0xfe, 0xe8, 0xfc, 0xfe, 0x00, 0xff, 0xf6, 0xfe,
  0xfc, 0x04, 0xfe, 0xff, 0x02, 0xfc, 0xf7, 0xfd, 0x10, 0xff, 0xf7, 0x01,
  0x02, 0x00, 0xfb, 0xff, 0xff, 0x02, 0x00, 0xfe, 0xe6, 0xff, 0x00, 0xfd,
  0x00, 0xfe, 0x01, 0xf5, 0x02, 0x03, 0x03, 0xfd, 0x02, 0xf9, 0xfb, 0x01,
  0x01, 0x04, 0x02, 0x06, 0xfb, 0x09, 0x00, 0xf7, 0x02, 0x02, 0x01, 0xfc,
  0x04, 0xff, 0xff, 0xfe, 0x01, 0xff, 0xff, 0xfd, 0x06, 0xf7, 0x04, 0xf8,
  0x03, 0xfd, 0xf5, 0xfb, 0x03, 0xf9, 0x02, 0xfe, 0xfb, 0x06, 0xfe, 0x05,
  0xfe, 0x00, 0x01, 0xfe, 0xf7, 0xff, 0xfb, 0x02, 0xfd, 0x00, 0xfb, 0x01,
  0xf6, 0x02, 0xff, 0x03, 0xff, 0x01, 0x02, 0xfe, 0xf8, 0xff, 0xff, 0x02,
  0xfd, 0xff, 0x02, 0x00, 0xfc, 0x01, 0x0b, 0x02, 0x02, 0x01, 0x05, 0x00,
  0xfc, 0xfc, 0xfb, 0x08, 0xfe, 0xf9, 0xff, 0xf7, 0x00, 0xfc, 0x00, 0x02,
  0x02, 0xf9, 0x00, 0x03, 0xff, 0x04, 0x02, 0xff, 0xfc, 0x05, 0xfa, 0x06,
  0xfa, 0x09, 0xfd, 0xff, 0x00, 0x02, 0x01, 0x00, 0xff, 0x01, 0xfa, 0xff,
  0x00, 0xf8, 0xfd, 0xfb, 0xfc, 0xff, 0xf8, 0x00, 0xff, 0x01, 0xfe, 0xf7,
  0x05, 0x04, 0xfc, 0x04, 0x07, 0xfb, 0x04, 0x04, 0xfd, 0xfa, 0xff, 0x00,
  0x08, 0x09, 0xfb, 0xfb, 0xf8, 0xfc, 0xfd, 0x02, 0xf9, 0xfb, 0xff, 0x06,
  0xff, 0xed, 0xfe, 0x06, 0xff, 0x01, 0xf8, 0x0a, 0x02, 0xf9, 0xec, 0x03,
  0x05, 0x02, 0xfd, 0x00, 0xfd, 0xff, 0xfc, 0x02, 0x00, 0xf8, 0xf8, 0xff,
  0x04, 0xfc, 0x02, 0xfb, 0x05, 0xfb, 0xfe, 0x01, 0x03, 0xfb, 0xfd, 0x05,
  0x05, 0x02, 0xf5, 0xfa, 0x01, 0xfd, 0x04, 0x06, 0x02, 0x03, 0xf7, 0xf1,
  0x02, 0xff, 0xfb, 0xff, 0xfb, 0x00, 0x06, 0xff, 0x03, 0x00, 0xfb, 0x08,
  0x08, 0xfa, 0xff, 0xf9, 0xfe, 0x02, 0x00, 0xfe, 0xf9, 0x03, 0x0d, 0xfd,
  0xf8, 0x00, 0xe9, 0xfe, 0xef, 0x03, 0xf6, 0x00, 0x05, 0xf9, 0x00, 0xfe,
  0xf8, 0xfc, 0x03, 0xfd, 0xff, 0xf2, 0xe5, 0xfe, 0xff, 0x06, 0xff, 0xfd,
  0xfc, 0xff, 0x01, 0xf0, 0x01, 0x06, 0xff, 0x02, 0xfe, 0x01, 0xfe, 0xfe,
  0xf0, 0x02, 0xfa, 0xe5, 0xff, 0xef, 0xff, 0xf3, 0xf5, 0x05, 0xda, 0x10,
  0x01, 0x01, 0x01, 0x01, 0x04, 0x06, 0x00, 0x05, 0x01, 0x00, 0x0b, 0x02,
  0xf6, 0xf2, 0xf5, 0x00, 0xea, 0x04, 0xf2, 0x00, 0x02, 0xfe, 0x01, 0xf5,
  0x03, 0xfe, 0xfa, 0xee, 0xff, 0x01, 0xf8, 0xfd, 0x01, 0xff, 0xfd, 0xfa,
  0x01, 0x02, 0x00, 0xff, 0x0b, 0xf5, 0xf6, 0x01, 0xfe, 0x0a, 0x03, 0x06,
  0x08, 0x0b, 0x00, 0x02, 0x01, 0xf9, 0xb6, 0x01, 0xf9, 0x03, 0x14, 0xfd,
  0x04, 0x03, 0xeb, 0x00, 0xff, 0x09, 0x03, 0x06, 0xfa, 0xfe, 0x03, 0xf9,
  0xf4, 0xfb, 0xff, 0x03, 0x00, 0x02, 0x01, 0x04, 0xfa, 0xf5, 0x02, 0xfe,
  0x08, 0xfd, 0xfd, 0x01, 0x06, 0xf8, 0xfc, 0xfe, 0x01, 0x0f, 0x00, 0x01,
  0xfe, 0x00, 0x01, 0x00, 0x01, 0xf8, 0x05, 0x04, 0xf1, 0xff, 0xff, 0xfa,
  0xfb, 0xf2, 0xfe, 0x07, 0xf8, 0x03, 0x00, 0x05, 0x00, 0xf9, 0x04, 0x09,
  0xfb, 0x00, 0x04, 0x01, 0x0f, 0xfd, 0x0a, 0xff, 0xfa, 0x02, 0xfb, 0x01,
  0x05, 0x03, 0xfe, 0x00, 0xf9, 0xf3, 0xfb, 0xfc, 0x04, 0x00, 0xef, 0xea,
  0x02, 0x04, 0x05, 0x03, 0xfc, 0x01, 0xda, 0x01, 0xfe, 0x0c, 0xe9, 0xfe,
  0x01, 0xff, 0xff, 0xfe, 0x04, 0xfc, 0xf8, 0xf6, 0xfc, 0xe0, 0xfe, 0x03,
  0xfa, 0x04, 0x00, 0x02, 0x03, 0xff, 0xfb, 0xe6, 0xf6, 0xfb, 0x03, 0x11,
  0xf9, 0x08, 0xfc, 0xfe, 0x00, 0x01, 0xf8, 0xf9, 0xff, 0xfd, 0xfd, 0x01,
  0xf8, 0x00, 0xfc, 0xf9, 0xec, 0xfc, 0x01, 0x02, 0xfc, 0x01, 0xfc, 0x04,
  0xff, 0xe6, 0xfe, 0x02, 0x02, 0xf8, 0xf9, 0xf9, 0x04, 0xf7, 0x01, 0xff,
  0x03, 0x01, 0x05, 0xff, 0x01, 0xfd, 0xf8, 0x02, 0xfc, 0x02, 0x06, 0xff,
  0xff, 0x02, 0xff, 0x06, 0x0b, 0x00, 0xd1, 0xff, 0x01, 0xfa, 0xff, 0xfc,
  0xff, 0xff, 0x03, 0xf8, 0xfc, 0xfe, 0x03, 0x05, 0xfd, 0x02, 0xf7, 0x02,
  0x04, 0xf9, 0x03, 0x06, 0xff, 0xf6, 0x02, 0xfb, 0x01, 0xfa, 0xf6, 0xfa,
  0x06, 0x05, 0xfe, 0x01, 0xfc, 0xfb, 0xff, 0xee, 0x02, 0xfc, 0xef, 0x00,
  0xf4, 0xfc, 0xf5, 0x03, 0x01, 0x04, 0x03, 0x02, 0x01, 0x03, 0xfe, 0xfe,
  0xed, 0xff, 0xfa, 0x00, 0xf1, 0x0b, 0xfb, 0x05, 0xf7, 0x02, 0xff, 0xf8,
  0x02, 0xf4, 0xf2, 0xfc, 0x0c, 0x07, 0x05, 0x01, 0xfb, 0xff, 0x0c, 0xfa,
  0xf0, 0xf8, 0x00, 0xff, 0x01, 0x09, 0x00, 0x02, 0xfb, 0xfb, 0xf5, 0x00,
  0x05, 0x02, 0x05, 0x00, 0x05, 0xdc, 0x00, 0xf0, 0x03, 0x01, 0xf2, 0xf4,
  0x0c, 0x00, 0xfd, 0x03, 0xf6, 0x00, 0xff, 0xfe, 0xfd, 0xf2, 0x01, 0x03,
  0x03, 0x00, 0x00, 0xe1, 0xff, 0x00, 0x04, 0xfe, 0x01, 0xed, 0xfb, 0x01,
  0x01, 0xff, 0x02, 0xfb, 0x01, 0x03, 0xf9, 0x01, 0xfe, 0xf4, 0x00, 0x00,
  0x00, 0x00, 0xfa, 0x01, 0x01, 0xee, 0xf6, 0xfc, 0xfa, 0x00, 0xe5, 0x04,
  0xff, 0x05, 0x09, 0xfd, 0xfd, 0x07, 0x05, 0x04, 0xfc, 0x00, 0x00, 0xf5,
  0x05, 0x00, 0xf1, 0xff, 0x01, 0x07, 0xff, 0xef, 0xf7, 0xfe, 0x03, 0xd5,
  0x08, 0xfd, 0x02, 0xda, 0x06, 0xfc, 0xfe, 0xff, 0x03, 0x01, 0x05, 0xe5,
  0x02, 0xfe, 0xff, 0x06, 0x00, 0x01, 0xff, 0xfd, 0xf7, 0xfc, 0x01, 0xe4,
  0x00, 0x04, 0xff, 0xfe, 0x01, 0xed, 0x00, 0xfe, 0x00, 0x03, 0xf0, 0xfa,
  0xf9, 0xfc, 0x04, 0x00, 0x02, 0xfc, 0xe7, 0x03, 0xfd, 0x05, 0xfc, 0x04,
  0x06, 0xfe, 0x00, 0xe7, 0x01, 0xe2, 0xfe, 0xf8, 0xf9, 0xfc, 0x02, 0xfc,
  0xff, 0xfe, 0xfe, 0x01, 0xfd, 0xf8, 0x08, 0x08, 0x14, 0x04, 0xe8, 0x00,
  0x04, 0x01, 0x07, 0xfe, 0xfd, 0x04, 0xfa, 0xeb, 0x02, 0x01, 0xff, 0xfd,
  0xf7, 0x01, 0xfa, 0x02, 0x01, 0xfc, 0xfd, 0xd8, 0x00, 0x00, 0x02, 0xed,
  0xfe, 0xfb, 0xfb, 0x02, 0x03, 0x02, 0x01, 0x01, 0x03, 0x0b, 0x04, 0xe0,
  0x02, 0xfe, 0xff, 0xfd, 0xfa, 0x01, 0xfd, 0x06, 0xfb, 0xfe, 0x02, 0x00,
  0x00, 0xfa, 0x01, 0x03, 0x01, 0xf1, 0xfb, 0x04, 0xff, 0x04, 0x05, 0x00,
  0xf8, 0x03, 0x04, 0xf6, 0xf9, 0x00, 0xff, 0x00, 0xf9, 0xff, 0xff, 0x00,
  0x01, 0x04, 0xef, 0x02, 0x04, 0x04, 0x01, 0x02, 0xfe, 0x03, 0xfa, 0x01,
  0x00, 0x01, 0xd0, 0x03, 0xff, 0xfe, 0x03, 0x01, 0x04, 0x02, 0xfd, 0x00,
  0xf0, 0x02, 0xfd, 0xfa, 0xfa, 0xd8, 0x05, 0xff, 0xfc, 0x01, 0x00, 0x03,
  0x01, 0x04, 0x02, 0xff, 0x00, 0xf9, 0x02, 0xfe, 0x03, 0xfc, 0xf6, 0xed,
  0xf9, 0xfc, 0xff, 0x04, 0xfd, 0x01, 0x03, 0xfe, 0x03, 0x00, 0x03, 0x00,
  0x00, 0x06, 0x02, 0x05, 0xfd, 0xff, 0xf9, 0xfb, 0xf2, 0xfb, 0xf8, 0x0e,
  0x00, 0xf7, 0xfb, 0xfd, 0x01, 0x01, 0x0a, 0x02, 0xff, 0x03, 0xff, 0xf8,
  0x02, 0xfe, 0xff, 0x00, 0x03, 0xfe, 0x0a, 0xfe, 0x02, 0xeb, 0xff, 0x03,
  0x03, 0x02, 0x01, 0xff, 0x01, 0xfe, 0x01, 0xfa, 0x02, 0x03, 0xfd, 0xff,
  0xfe, 0x01, 0xb6, 0x01, 0xff, 0xfc, 0x05, 0xf2, 0x0c, 0xd3, 0x02, 0xff,
  0x05, 0xfd, 0xff, 0xff, 0xfb, 0xfd, 0xff, 0xe2, 0x00, 0x02, 0x00, 0xff,
  0x04, 0xf9, 0xf0, 0xf3, 0xf3, 0xf6, 0x00, 0x00, 0x01, 0x05, 0x0e, 0x00,
  0xfe, 0xfd, 0x04, 0x03, 0x01, 0x01, 0xf5, 0x01, 0xfe, 0xfa, 0x01, 0xfc,
  0xfe, 0xf5, 0x05, 0xff, 0xfd, 0x01, 0x00, 0x01, 0x03, 0xfe, 0xff, 0xff,
  0xff, 0xf7, 0x01, 0xfa, 0xff, 0x04, 0x01, 0x0c, 0x04, 0x03, 0xfe, 0xfd,
  0x00, 0x0b, 0x01, 0xff, 0xfa, 0x04, 0x00, 0xfd, 0xff, 0xf6, 0x02, 0x01,
  0x05, 0x00, 0xef, 0x05, 0x04, 0xf6, 0xff, 0x04, 0x05, 0x04, 0xff, 0xff,
  0x01, 0xff, 0x02, 0xff, 0x01, 0x00, 0x00, 0x04, 0xf6, 0x02, 0xed, 0x00,
  0xf8, 0x00, 0x02, 0xff, 0xfe, 0xf3, 0x01, 0xf5, 0x02, 0xff, 0xf9, 0x01,
  0xfe, 0xfe, 0xef, 0x06, 0x00, 0xfb, 0xfd, 0x00, 0xe2, 0x00, 0x0c, 0x01,
  0x02, 0x00, 0xfc, 0xfb, 0x01, 0x05, 0x00, 0xff, 0xf8, 0xfd, 0x01, 0x01,
  0xfe, 0xf6, 0xff, 0xfc, 0xfe, 0x00, 0xfe, 0x00, 0xff, 0xfa, 0xfc, 0x09,
  0x02, 0x00, 0xfb, 0x02, 0xfa, 0x04, 0xfe, 0xfc, 0xfc, 0xfe, 0x00, 0xfe,
  0xff, 0xf8, 0xfd, 0x00, 0x02, 0xff, 0x08, 0xfd, 0x02, 0x05, 0xe4, 0x03,
  0x02, 0x05, 0xfd, 0x15, 0x11, 0xfc, 0xfc, 0xe7, 0x03, 0x02, 0xfb, 0x01,
  0x02, 0x01, 0xfc, 0x01, 0x02, 0xfd, 0xff, 0xfe, 0xf8, 0x01, 0xe5, 0xff,
  0xfc, 0xfc, 0x04, 0xfd, 0x01, 0xf8, 0xfa, 0x02, 0xfd, 0x01, 0xff, 0xfe,
  0x06, 0x05, 0xf8, 0x01, 0x00, 0xfd, 0xed, 0xf8, 0x00, 0xff, 0x03, 0xf5,
  0x11, 0x11, 0xf5, 0xfd, 0xfe, 0xfc, 0x01, 0x00, 0xfa, 0x03, 0x01, 0xde,
  0xf7, 0x00, 0xff, 0xf7, 0xe8, 0x03, 0x08, 0xf6, 0xfd, 0x03, 0x02, 0xf8,
  0xf1, 0x04, 0x03, 0x02, 0x02, 0xfc, 0x03, 0xfb, 0x09, 0x01, 0x03, 0xf7,
  0x02, 0xfe, 0xf6, 0x00, 0x02, 0xff, 0x01, 0x07, 0xfd, 0x03, 0x00, 0x01,
  0xff, 0x01, 0xfe, 0xf7, 0x05, 0xfe, 0x01, 0xff, 0x01, 0x00, 0xf3, 0x00,
  0x06, 0xff, 0xfa, 0xf2, 0xfd, 0x04, 0xfd, 0x00, 0xf1, 0x01, 0xfb, 0x00,
  0xfc, 0x02, 0x16, 0x00, 0x04, 0x04, 0xfc, 0xe3, 0xff, 0xfb, 0x00, 0x08,
  0xfe, 0x02, 0xd0, 0x05, 0xf8, 0x04, 0xf5, 0x03, 0xfd, 0xff, 0x07, 0xf9,
  0x07, 0xf4, 0x01, 0xfd, 0x05, 0xfe, 0x00, 0x08, 0xf6, 0xfe, 0xf5, 0x00,
  0x02, 0xf3, 0xf6, 0x05, 0x04, 0x01, 0x00, 0xe9, 0x01, 0x05, 0x11, 0xfb,
  0xfd, 0x01, 0x00, 0x01, 0xe9, 0xf8, 0x03, 0x00, 0x02, 0x05, 0xff, 0x10,
  0x01, 0xfe, 0xe4, 0x01, 0xff, 0x03, 0xf7, 0xf6, 0xff, 0xef, 0xf9, 0x02,
  0x02, 0x00, 0xf6, 0xf7, 0xfe, 0x01, 0xfd, 0x09, 0xfb, 0x07, 0xf7, 0xdb,
  0xfb, 0x04, 0xfd, 0xee, 0x07, 0x02, 0xfc, 0xe8, 0x03, 0x05, 0xfd, 0x00,
  0x02, 0x00, 0x09, 0xf7, 0x03, 0x08, 0xff, 0xff, 0xf6, 0xfc, 0xff, 0xfd,
  0xfa, 0xf9, 0x03, 0xe4, 0x01, 0xfd, 0x00, 0x01, 0xff, 0xff, 0x08, 0x02,
  0x08, 0xff, 0x06, 0x0b, 0x07, 0xfc, 0x02, 0x00, 0xff, 0x02, 0xfe, 0x01,
  0xff, 0xfd, 0x00, 0xf8, 0x04, 0x03, 0xfd, 0x02, 0x01, 0xf5, 0xff, 0x07,
  0xfa, 0xff, 0xfa, 0x06, 0xfc, 0xfe, 0x01, 0x01, 0xfd, 0xfc, 0xff, 0x04,
  0xfc, 0x01, 0xfe, 0x01, 0x01, 0xfb, 0xff, 0xfe, 0xfe, 0xfd, 0x02, 0x04,
  0xfe, 0xff, 0xfe, 0xff, 0xfe, 0x02, 0xf5, 0xfb, 0x04, 0xfd, 0x07, 0xfc,
  0xf6, 0x00, 0x00, 0x04, 0xf1, 0xf7, 0x03, 0xfc, 0x0b, 0x04, 0xf8, 0xfd,
  0xf9, 0xfe, 0xf9, 0xff, 0xfb, 0x01, 0x03, 0xf9, 0xf6, 0x08, 0x00, 0xfd,
  0x05, 0x02, 0xfb, 0xff, 0xfd, 0xfb, 0xfa, 0x00, 0xff, 0x03, 0xf6, 0x00,
  0xfd, 0xf5, 0xe7, 0xfc, 0x01, 0xe0, 0x02, 0xfd, 0x04, 0xfd, 0xfc, 0x02,
  0xfe, 0x0c, 0xfd, 0x00, 0xfc, 0x01, 0xfd, 0x00, 0x01, 0xfe, 0xfb, 0x01,
  0x05, 0x03, 0x00, 0xfd, 0x03, 0xfc, 0x09, 0x03, 0xf7, 0xf3, 0x07, 0x03,
  0x11, 0x03, 0xfe, 0x00, 0x03, 0x00, 0xff, 0x00, 0xfd, 0x01, 0xfa, 0x04,
  0xee, 0xfd, 0xff, 0x07, 0xff, 0xf8, 0xfe, 0xe8, 0x02, 0x09, 0xfd, 0x03,
  0xff, 0x11, 0x00, 0xff, 0xfb, 0xff, 0xfb, 0xff, 0xfe, 0x08, 0x00, 0x03,
  0x02, 0xfc, 0xf0, 0xf8, 0xff, 0x02, 0xea, 0xfd, 0xfc, 0xfb, 0xfc, 0xff,
  0xf4, 0x01, 0xf7, 0xff, 0x07, 0x0e, 0x02, 0x00, 0xfb, 0xff, 0x03, 0x01,
  0xf4, 0x01, 0xfa, 0x0b, 0x05, 0x06, 0xfb, 0xfe, 0xfd, 0xfc, 0x0a, 0xff,
  0x00, 0xfe, 0x03, 0xf8, 0x02, 0xf9, 0xfc, 0x04, 0x01, 0x00, 0xf8, 0xfc,
  0xfa, 0xfd, 0xf8, 0x06, 0x03, 0x00, 0xf9, 0xf5, 0x01, 0xea, 0x01, 0x04,
  0xfd, 0xfc, 0x00, 0xfe, 0xff, 0xfe, 0xf6, 0xfc, 0xfd, 0xf0, 0xfd, 0xf7,
  0x00, 0x02, 0xfc, 0x06, 0xfb, 0xfd, 0x00, 0x00, 0x02, 0xfc, 0x03, 0xfd,
  0x00, 0x05, 0xf7, 0x01, 0x08, 0x03, 0x00, 0xfe, 0xfb, 0xfe, 0xf8, 0x00,
  0x01, 0xfd, 0x02, 0x05, 0x0f, 0xfe, 0x00, 0x06, 0x03, 0x02, 0xfe, 0xfb,
  0x01, 0xdf, 0x02, 0xfe, 0xfb, 0x01, 0xff, 0xf4, 0xf0, 0x06, 0xfc, 0xf7,
  0xfd, 0xff, 0x05, 0x08, 0xf5, 0xfd, 0x02, 0x02, 0xff, 0x00, 0xfe, 0xfd,
  0x01, 0xff, 0x01, 0x00, 0xee, 0x00, 0x05, 0x03, 0x0a, 0xfe, 0x00, 0x08,
  0x04, 0xfb, 0x08, 0xf9, 0xf5, 0xff, 0x04, 0xff, 0xf5, 0x00, 0x00, 0xf9,
  0x01, 0x07, 0xea, 0xff, 0x02, 0x01, 0x00, 0x02, 0x00, 0x08, 0x01, 0xfd,
  0xfc, 0x14, 0xfe, 0xfe, 0xf6, 0xff, 0xf9, 0xf5, 0x01, 0xf7, 0xe7, 0xfd,
  0xff, 0x02, 0xfc, 0x01, 0x00, 0xfa, 0xff, 0xfc, 0xfd, 0xf9, 0x00, 0xff,
  0xf6, 0xfd, 0xfc, 0x05, 0xfa, 0x03, 0xfd, 0xff, 0x06, 0xf9, 0xfe, 0x10,
  0x01, 0xfe, 0x0b, 0x00, 0xfb, 0x04, 0xfc, 0x02, 0xfb, 0xf1, 0xfe, 0x01,
  0x00, 0x00, 0xff, 0xfb, 0x0e, 0x03, 0x05, 0x00, 0x01, 0xfd, 0xff, 0x02,
  0x04, 0xfd, 0x05, 0xfb, 0xf9, 0x06, 0xfc, 0x00, 0xf2, 0x02, 0x04, 0x05,
  0x00, 0xff, 0xf1, 0x02, 0x01, 0x04, 0xfd, 0xff, 0xf9, 0xf1, 0xfd, 0xf7,
  0x09, 0xfd, 0x00, 0x00, 0xfd, 0x01, 0xf4, 0xfd, 0x00, 0xfe, 0xf6, 0x03,
  0xf6, 0xfe, 0xfd, 0xff, 0xfd, 0x03, 0x04, 0x03, 0xfe, 0x00, 0x04, 0xfe,
  0xf3, 0x08, 0x00, 0xfe, 0xf3, 0x03, 0x02, 0xff, 0x02, 0xfe, 0xf6, 0x00,
  0xf5, 0x02, 0xfc, 0xf8, 0x05, 0x02, 0x05, 0xfb, 0x10, 0x03, 0xfe, 0xfb,
  0xfa, 0x02, 0x03, 0x0d, 0xf7, 0x02, 0xfc, 0xfc, 0x01, 0xf9, 0xff, 0x01,
  0x01, 0xfd, 0x06, 0xff, 0x04, 0xfc, 0xf8, 0xfe, 0x01, 0xfe, 0xfe, 0x08,
  0x02, 0x02, 0x00, 0xff, 0x05, 0xf8, 0xfd, 0xf7, 0x04, 0xf9, 0xff, 0xfe,
  0x04, 0x01, 0xfa, 0xff, 0xed, 0xfe, 0x09, 0xe7, 0x03, 0x0a, 0x03, 0xfc,
  0xfa, 0xff, 0x03, 0xff, 0x08, 0x05, 0x08, 0x06, 0x01, 0x00, 0xf7, 0x03,
  0x0b, 0xf1, 0x00, 0xee, 0x03, 0x01, 0xfd, 0x06, 0xfb, 0x00, 0xfc, 0xfc,
  0xfc, 0x01, 0xf6, 0xfc, 0xff, 0xef, 0x03, 0x04, 0xfe, 0xf7, 0x02, 0x05,
  0x07, 0x09, 0x00, 0xfc, 0xfe, 0xf6, 0xec, 0x01, 0xff, 0x00, 0x01, 0xea,
  0xfd, 0x02, 0x08, 0x01, 0xfb, 0x01, 0x00, 0x02, 0xf7, 0x01, 0xf8, 0xfd,
  0x04, 0xf2, 0x00, 0x00, 0xff, 0x01, 0xe6, 0xfc, 0x01, 0xff, 0x01, 0xfc,
  0xfb, 0xf3, 0x07, 0xfb, 0x09, 0x00, 0xed, 0xf1, 0x00, 0x02, 0x03, 0x03,
  0xf7, 0x02, 0xfc, 0xdf, 0xe7, 0xfc, 0x00, 0xe3, 0xff, 0xff, 0x04, 0xf5,
  0x06, 0xfd, 0x02, 0x00, 0x04, 0x00, 0xfd, 0xee, 0x00, 0xfa, 0xff, 0xfb,
  0xfe, 0xf9, 0xff, 0xfe, 0xff, 0x04, 0xff, 0xf4, 0xfc, 0xfd, 0x00, 0xff,
  0x02, 0xf6, 0xff, 0x01, 0xfd, 0xf4, 0x02, 0x1c, 0x03, 0x02, 0x0b, 0xfe,
  0x02, 0xf9, 0x04, 0x06, 0xff, 0xfb, 0xe3, 0x06, 0xff, 0xf9, 0x02, 0xf3,
  0xfc, 0x0d, 0xfd, 0xe8, 0x02, 0xfa, 0x06, 0xfb, 0x00, 0xeb, 0x04, 0xfb,
  0xf7, 0xf2, 0xfc, 0x00, 0xff, 0xff, 0xfc, 0xff, 0xf9, 0xf0, 0x03, 0xfe,
  0xf9, 0x07, 0xf3, 0xfc, 0xfc, 0xe1, 0x02, 0xff, 0xfa, 0x03, 0xe5, 0x00,
  0x02, 0x04, 0x00, 0xf9, 0x02, 0xef, 0x09, 0x01, 0xf7, 0x00, 0x10, 0x02,
  0xfc, 0x09, 0xff, 0xff, 0x04, 0xfc, 0x0b, 0xe5, 0xfe, 0x00, 0x01, 0xf6,
  0xf6, 0xfd, 0x02, 0xf3, 0xe8, 0xfd, 0x00, 0xf8, 0xf8, 0xfd, 0x01, 0x05,
  0x01, 0xf8, 0xfe, 0x00, 0xfa, 0x07, 0xf7, 0x01, 0xfb, 0xfc, 0xfc, 0xfa,
  0xfd, 0x01, 0xfd, 0xff, 0x04, 0xfb, 0x01, 0x0a, 0x0c, 0xff, 0xf9, 0x04,
  0xf7, 0xf9, 0x01, 0x05, 0x06, 0xfd, 0xfd, 0xfb, 0x01, 0x02, 0xfe, 0x02,
  0xf9, 0xea, 0x17, 0xfb, 0xfc, 0x02, 0x00, 0x00, 0xff, 0x05, 0x03, 0xf7,
  0xf4, 0x03, 0xfa, 0xd8, 0xf6, 0xf7, 0xff, 0xfb, 0x00, 0xf6, 0xfe, 0x0b,
  0xff, 0x04, 0xfe, 0xf7, 0xf6, 0x0c, 0xff, 0xf5, 0x06, 0xf7, 0xfb, 0x06,
  0xff, 0x07, 0x01, 0x02, 0x00, 0xfc, 0x0b, 0xfe, 0x00, 0xfb, 0x01, 0xf9,
  0xf2, 0xff, 0x06, 0xeb, 0xf2, 0x00, 0x03, 0xfc, 0x01, 0xfa, 0x06, 0x00,
  0xfe, 0x01, 0xfc, 0x01, 0xfc, 0x00, 0x00, 0xfd, 0xf8, 0xff, 0xff, 0x00,
  0xf9, 0x03, 0x06, 0x01, 0x02, 0x05, 0xff, 0xfb, 0xfe, 0xee, 0x06, 0xfd,
  0x08, 0x00, 0xfa, 0xec, 0x00, 0x05, 0x00, 0x02, 0xf1, 0x01, 0x04, 0xfe,
  0xf8, 0xf3, 0x1a, 0xfb, 0x01, 0xe2, 0x05, 0xfd, 0x05, 0xfd, 0xfc, 0x02,
  0xfe, 0x07, 0xfe, 0x09, 0xea, 0x04, 0xff, 0xfd, 0x01, 0x02, 0xfc, 0xde,
  0x06, 0xff, 0x03, 0x12, 0x01, 0xfb, 0xfc, 0xfc, 0x00, 0x10, 0x05, 0xff,
  0xfa, 0x00, 0x0a, 0xfe, 0x01, 0x0b, 0xfc, 0x04, 0xf4, 0xfd, 0xff, 0xfa,
  0xfd, 0xfa, 0x01, 0xec, 0x05, 0x00, 0x00, 0x0a, 0x02, 0x06, 0xf1, 0x04,
  0xfd, 0xff, 0xee, 0x17, 0xff, 0xe9, 0x02, 0x0c, 0x00, 0x06, 0x00, 0x01,
  0x04, 0xfd, 0xbc, 0xfe, 0x02, 0x04, 0x09, 0x09, 0x0f, 0x00, 0x02, 0xf8,
  0xff, 0x04, 0x02, 0xfc, 0x0d, 0xfd, 0xf4, 0xff, 0x06, 0xf7, 0xff, 0xe9,
  0xfd, 0xf1, 0x05, 0xea, 0xf9, 0xfa, 0xc5, 0xf4, 0xf8, 0x01, 0xf2, 0xff,
  0xfe, 0xf9, 0x00, 0xfe, 0xfb, 0xff, 0xf9, 0xfb, 0x01, 0x01, 0xfa, 0xe9,
  0xdc, 0x02, 0x08, 0xf9, 0x05, 0x03, 0xf3, 0xfc, 0xfb, 0xfd, 0xf1, 0xf8,
  0x02, 0xf4, 0x00, 0x01, 0x01, 0xfb, 0xf6, 0xda, 0x02, 0xed, 0xff, 0x03,
  0x06, 0x09, 0xfc, 0x01, 0x01, 0x07, 0xf9, 0xc9, 0x00, 0x03, 0xff, 0xff,
  0x03, 0xfe, 0x01, 0x00, 0x01, 0xfb, 0xf5, 0xff, 0x01, 0xf3, 0xfb, 0xfe,
  0x02, 0xfe, 0x08, 0xf9, 0x02, 0x05, 0xf6, 0xff, 0x0c, 0xff, 0x02, 0xf4,
  0xfc, 0xfc, 0xfe, 0xed, 0x03, 0x02, 0xf1, 0x02, 0xff, 0xf0, 0x01, 0x00,
  0xf2, 0xfb, 0xf6, 0x01, 0xf4, 0xff, 0xea, 0x01, 0x01, 0xef, 0x07, 0xfd,
  0xf9, 0x06, 0xfd, 0x03, 0xfb, 0xfa, 0xfa, 0xfd, 0xff, 0x00, 0xee, 0xfe,
  0x03, 0xff, 0xf9, 0xfe, 0x04, 0x02, 0x00, 0xec, 0x03, 0x07, 0x03, 0x01,
  0x03, 0x01, 0x02, 0x01, 0xfd, 0xff, 0xfc, 0xd2, 0x05, 0xfd, 0xfe, 0xfe,
  0xfe, 0xfe, 0x05, 0xf5, 0xea, 0xfe, 0x01, 0xff, 0x02, 0x03, 0x06, 0xfc,
  0x02, 0xfa, 0x03, 0x03, 0x01, 0x00, 0xff, 0x00, 0x00, 0x04, 0x05, 0xf7,
  0xff, 0x00, 0xfe, 0xfa, 0xf5, 0x05, 0x00, 0xff, 0xff, 0x01, 0xe3, 0xf0,
  0x00, 0x07, 0x01, 0x02, 0x01, 0x00, 0xfa, 0x02, 0xfd, 0xfd, 0x01, 0xff,
  0x00, 0x03, 0xf8, 0x06, 0xf7, 0xf8, 0x01, 0x00, 0x01, 0x04, 0x01, 0xfe,
  0xf7, 0x03, 0xfa, 0xfd, 0x09, 0xff, 0x01, 0xec, 0xf7, 0xfd, 0xfe, 0xec,
  0x0a, 0xed, 0x16, 0xfc, 0x00, 0xe6, 0x02, 0x01, 0x02, 0x02, 0x04, 0x0c,
  0xf7, 0x06, 0xf3, 0xff, 0x05, 0x05, 0x05, 0xfe, 0xf9, 0x09, 0xfe, 0x00,
  0xfb, 0xfa, 0xf4, 0xff, 0xfe, 0x02, 0xf5, 0x00, 0x00, 0xfe, 0xf6, 0x0a,
  0x00, 0x00, 0xf9, 0xff, 0xfa, 0xfa, 0xfb, 0xfd, 0x01, 0x00, 0x05, 0x01,
  0xec, 0xf7, 0xf6, 0x04, 0x05, 0x00, 0x00, 0xfb, 0xf8, 0xfe, 0xf5, 0x07,
  0xf5, 0xff, 0x02, 0x08, 0xf7, 0x04, 0xfd, 0x00, 0x01, 0xdc, 0x00, 0x02,
  0xf6, 0x01, 0x04, 0xfb, 0x01, 0x02, 0x03, 0xfb, 0xfa, 0x00, 0xf7, 0x01,
  0x0c, 0x06, 0x00, 0x06, 0xfc, 0x01, 0xe4, 0x06, 0xf9, 0x04, 0x01, 0x01,
  0x00, 0x03, 0xf0, 0xfe, 0xfe, 0x01, 0x03, 0x01, 0xff, 0xfd, 0xfc, 0xfb,
  0x02, 0x00, 0xfb, 0x00, 0xff, 0xff, 0xfe, 0xfd, 0x05, 0xff, 0xfa, 0x00,
  0x03, 0x05, 0xfd, 0xfe, 0xfd, 0xf5, 0xfd, 0xfc, 0xfc, 0x02, 0xdd, 0x02,
  0x01, 0xfd, 0x00, 0xfe, 0xfe, 0xf9, 0xf5, 0xfb, 0x0e, 0xff, 0xf6, 0xfe,
  0x04, 0x00, 0x07, 0xff, 0xfe, 0x02, 0xfb, 0xfe, 0xf1, 0xfe, 0xf2, 0xff,
  0xf7, 0x01, 0x03, 0xfd, 0xf2, 0x03, 0xfa, 0x05, 0xf0, 0xfe, 0xff, 0x02,
  0xeb, 0xfe, 0xfe, 0x07, 0x00, 0xff, 0x05, 0xf2, 0xf6, 0xf9, 0x02, 0xf6,
  0xf6, 0x01, 0x00, 0xfe, 0xf4, 0xfb, 0x00, 0x00, 0xfe, 0x01, 0x00, 0xf0,
  0xf4, 0xfe, 0x01, 0x00, 0x04, 0xb5, 0x07, 0xfe, 0x02, 0xfd, 0x0b, 0x02,
  0xff, 0x02, 0x13, 0xfe, 0xf3, 0xfe, 0xe2, 0x02, 0xfd, 0x00, 0xfc, 0x01,
  0x02, 0xfe, 0xfe, 0x00, 0xff, 0xfe, 0x00, 0xf8, 0xf5, 0x01, 0x00, 0x03,
  0x02, 0x06, 0xfc, 0x00, 0x02, 0x07, 0x05, 0x0e, 0x08, 0xfe, 0x08, 0xff,
  0x02, 0xfd, 0xf4, 0xfa, 0x06, 0x02, 0xff, 0xe6, 0xfb, 0xf7, 0x00, 0xfb,
  0xfc, 0x01, 0x0a, 0xff, 0x01, 0x03, 0xf4, 0xfc, 0x05, 0xfc, 0x00, 0xf4,
  0x0b, 0xdf, 0xff, 0xfb, 0x06, 0x00, 0x04, 0x00, 0xfc, 0x05, 0xf2, 0xfe,
  0x01, 0x03, 0xfe, 0xfa, 0x08, 0x00, 0x03, 0xec, 0x04, 0xfb, 0xfa, 0xfe,
  0xf5, 0xfe, 0xfe, 0xfe, 0x04, 0x03, 0x08, 0x03, 0x06, 0x02, 0x00, 0xf9,
  0x06, 0x02, 0xaa, 0xfa, 0xfc, 0x02, 0x00, 0x01, 0x04, 0xfb, 0x07, 0xf9,
  0xf9, 0xfe, 0xef, 0xf7, 0xff, 0x01, 0xfa, 0xf8, 0xfa, 0xfe, 0xfe, 0x02,
  0xfb, 0x01, 0xfd, 0xf7, 0x01, 0xf1, 0xfa, 0x00, 0x05, 0xff, 0xf1, 0xfe,
  0x01, 0xfd, 0x09, 0xe6, 0x01, 0xe8, 0x00, 0xfc, 0xfb, 0xfa, 0xff, 0x07,
  0xfd, 0xf5, 0xff, 0xd7, 0xfd, 0xf7, 0x02, 0xfa, 0xf3, 0x05, 0xdc, 0xfb,
  0xff, 0xff, 0xf6, 0x02, 0xff, 0x03, 0x00, 0x00, 0x81, 0x02, 0x02, 0xfc,
  0xfd, 0x0f, 0xfa, 0x00, 0xfa, 0xf1, 0xfd, 0xf7, 0xfb, 0xff, 0x01, 0x06,
  0xfc, 0x01, 0x01, 0xda, 0x05, 0x01, 0xfe, 0xff, 0xff, 0x08, 0x00, 0xff,
  0x01, 0xec, 0x00, 0xfc, 0x04, 0xf0, 0x00, 0x01, 0x01, 0x07, 0x02, 0xfe,
  0x03, 0x00, 0xff, 0x02, 0xfb, 0xf1, 0x11, 0xf2, 0x01, 0xf6, 0xe5, 0xff,
  0xfe, 0xfd, 0xf9, 0x01, 0x02, 0x02, 0xfe, 0xfe, 0xff, 0x02, 0xfd, 0x01,
  0x0b, 0x02, 0x02, 0x00, 0xff, 0xf9, 0xff, 0xf9, 0x01, 0xff, 0xf9, 0x05,
  0x07, 0xff, 0x03, 0x00, 0xff, 0x02, 0xf5, 0xff, 0xac, 0x01, 0x09, 0x11,
  0x08, 0x05, 0xfa, 0xf3, 0xfc, 0xeb, 0xfe, 0x00, 0xfb, 0xfc, 0x09, 0x00,
  0xd0, 0x05, 0xff, 0x02, 0xfa, 0xcf, 0xfd, 0x08, 0xf8, 0xf8, 0xf1, 0xf9,
  0x00, 0x06, 0x04, 0x06, 0x03, 0x02, 0xfe, 0xe6, 0x00, 0x09, 0xf4, 0x04,
  0xdc, 0x00, 0x00, 0xfe, 0x04, 0xf4, 0xee, 0xf8, 0xff, 0x02, 0x04, 0x0b,
  0x03, 0xfe, 0x01, 0xf6, 0xff, 0x01, 0x02, 0xf9, 0x00, 0xfb, 0xe6, 0xff,
  0xf5, 0x00, 0x01, 0x01, 0xf8, 0x00, 0x05, 0xfe, 0x0a, 0x02, 0x03, 0x01,
  0xee, 0x02, 0x0f, 0x00, 0x01, 0xf7, 0xf6, 0x07, 0x04, 0xfe, 0x00, 0x18,
  0x06, 0x06, 0xf9, 0x06, 0xfc, 0x02, 0x01, 0xff, 0xfc, 0x08, 0x01, 0xea,
  0x01, 0xe8, 0x02, 0xf8, 0x06, 0xfd, 0xd4, 0x0b, 0xfe, 0x02, 0xf3, 0x02,
  0x01, 0xff, 0xfa, 0x11, 0x05, 0x01, 0x08, 0xfa, 0x01, 0x02, 0x00, 0xff,
  0xf8, 0xf9, 0xf9, 0xfd, 0x01, 0xf4, 0x01, 0xfd, 0x03, 0xff, 0xfa, 0xdd,
  0x05, 0x02, 0x02, 0xfe, 0x01, 0xfe, 0x07, 0xe8, 0x01, 0xff, 0x00, 0xef,
  0x04, 0xf0, 0xf6, 0xfd, 0xfb, 0xfc, 0xfe, 0xe3, 0x03, 0x04, 0xff, 0xf7,
  0xda, 0xf2, 0xff, 0xff, 0x04, 0x00, 0x00, 0x00, 0x00, 0x0a, 0x00, 0x00,
  0x44, 0x22, 0x9a, 0x3e, 0xd2, 0x67, 0x07, 0xbe, 0x17, 0x35, 0x80, 0x3d,
  0x59, 0xbc, 0x56, 0xbd, 0x2d, 0x52, 0x49, 0x3c, 0x44, 0x30, 0x83, 0xbe,
  0x23, 0x51, 0x44, 0x3e, 0x6d, 0x72, 0xbf, 0x3e, 0x7d, 0xae, 0xf3, 0xbe,
  0xd1, 0x18, 0x0b, 0x3e, 0x6b, 0xc0, 0x21, 0x3e, 0x0d, 0x90, 0xd0, 0xbe,
  0xec, 0xb3, 0x69, 0xbe, 0x0a, 0x13, 0xa9, 0xba, 0x97, 0xcf, 0x0b, 0x3c,
  0x43, 0xdd, 0x9c, 0x3d, 0xe1, 0x90, 0xa1, 0x3e, 0xf4, 0x95, 0x49, 0xbe,
  0xe9, 0x18, 0x73, 0xbd, 0x59, 0x44, 0x72, 0x3e, 0x09, 0x42, 0xd6, 0x3e,
  0x1b, 0x19, 0x0a, 0xbf, 0x2b, 0x87, 0xa3, 0x3d, 0xad, 0x26, 0x71, 0x3d,
  0x8e, 0x98, 0xa6, 0xbe, 0xa2, 0x37, 0x2b, 0xbc, 0x3f, 0x3c, 0xb4, 0xbd,
  0x37, 0x2c, 0x5e, 0xbe, 0x75, 0x9f, 0x19, 0xbf, 0x51, 0x59, 0xe7, 0xbd,
  0x4f, 0xae, 0x46, 0xbd, 0xe6, 0x6d, 0x5c, 0x3c, 0x8e, 0x8f, 0x94, 0xbc,
  0xa3, 0xfd, 0x3f, 0xbe, 0x36, 0x00, 0xe7, 0x3d, 0x42, 0x16, 0x55, 0xbd,
  0xcf, 0x27, 0x16, 0xbd, 0x94, 0xe1, 0x0e, 0x3d, 0x19, 0x16, 0x3a, 0x3c,
  0x9f, 0xad, 0xf0, 0xbe, 0x6f, 0xfd, 0xd3, 0xbe, 0xc4, 0x1b, 0x07, 0x3f,
  0x9e, 0x27, 0xb1, 0xbe, 0xa4, 0x68, 0xfc, 0xbd, 0x4d, 0x92, 0xb4, 0xbe,
  0xa7, 0x41, 0x97, 0x3e, 0xed, 0xd3, 0x85, 0xbe, 0x7c, 0x94, 0x43, 0x3e,
  0x9a, 0x78, 0x2d, 0x3d, 0x13, 0xe2, 0xbf, 0xbe, 0xdb, 0x14, 0xdf, 0xbd,
  0x92, 0x49, 0xda, 0xbe, 0x41, 0x90, 0xa9, 0xbd, 0x40, 0x06, 0x28, 0xbd,
  0xd1, 0x90, 0x1a, 0xbe, 0x6d, 0x5c, 0x7c, 0x3b, 0x64, 0xad, 0x76, 0x3b,
  0x1c, 0x86, 0xc7, 0xbb, 0xec, 0x4c, 0x49, 0xbc, 0x05, 0x63, 0x1c, 0xbc,
  0xdf, 0xb8, 0x80, 0x3e, 0xa7, 0x70, 0x68, 0xbe, 0xdb, 0x38, 0xd5, 0xbc,
  0xce, 0xda, 0xb4, 0xbd, 0x2c, 0x04, 0x22, 0x3e, 0x65, 0x00, 0x95, 0xbe,
  0x47, 0x86, 0xf9, 0xbc, 0x07, 0x70, 0x04, 0xbe, 0xf4, 0x91, 0x28, 0xbf,
  0xf6, 0x9f, 0x55, 0x3e, 0x87, 0x20, 0x34, 0xbe, 0x8a, 0xed, 0x04, 0x3f,
  0xe1, 0xe0, 0x93, 0xbd, 0xeb, 0x78, 0xac, 0xbe, 0x45, 0x45, 0xd0, 0x3d,
  0xbe, 0x2a, 0x1b, 0xbe, 0x46, 0x5f, 0x9f, 0xbd, 0x38, 0xa7, 0x94, 0xb8,
  0x00, 0xf7, 0xa7, 0xbe, 0x90, 0x5b, 0xac, 0x3e, 0x90, 0x63, 0xa3, 0xbe,
  0xc5, 0xb8, 0xf3, 0x3d, 0xfb, 0x07, 0xae, 0xbd, 0xee, 0x2c, 0x68, 0xbc,
  0x09, 0xdc, 0x5b, 0xbb, 0xb2, 0x9c, 0x37, 0xbe, 0x1d, 0x49, 0x9f, 0xbd,
  0x2c, 0xef, 0xe7, 0xbb, 0xa9, 0x7f, 0x09, 0xbe, 0x8f, 0x37, 0xe5, 0x3e,
  0xbf, 0x68, 0xd4, 0xbd, 0x06, 0x87, 0x45, 0x3e, 0x41, 0x8e, 0xa5, 0x3e,
  0x3a, 0xe6, 0x4b, 0xbf, 0x5d, 0xa4, 0x5c, 0xbd, 0x83, 0x81, 0x9c, 0x3e,
  0x3f, 0x9a, 0x95, 0xbe, 0x46, 0xa2, 0x96, 0xbe, 0xe5, 0x9f, 0x43, 0xbe,
  0x5d, 0x26, 0xe0, 0xbe, 0x8f, 0x7b, 0x3e, 0x3e, 0x5f, 0x7d, 0x90, 0xbe,
  0x1b, 0x86, 0x7e, 0x3e, 0xad, 0xfa, 0xfd, 0xbe, 0xb9, 0x3d, 0x3a, 0xbd,
  0x49, 0x12, 0xd0, 0x3e, 0x5c, 0x08, 0xc6, 0x3d, 0xc7, 0xd5, 0x32, 0xbe,
  0xc0, 0x58, 0xa3, 0xbd, 0x8e, 0x63, 0xf6, 0xbe, 0x08, 0xdb, 0xb2, 0xbb,
  0x3c, 0x66, 0xa3, 0x3c, 0xdb, 0x39, 0x9c, 0xbb, 0x00, 0x21, 0x60, 0xbc,
  0xd6, 0x81, 0x20, 0x3c, 0xa9, 0x44, 0x8a, 0x3e, 0x3d, 0xc6, 0x54, 0x3c,
  0xb1, 0xa1, 0xdd, 0x3d, 0x95, 0x8e, 0xf1, 0xbe, 0x69, 0x41, 0x9c, 0xbe,
  0xa4, 0x22, 0xc3, 0xbb, 0x93, 0xe9, 0xb9, 0x3e, 0x64, 0x35, 0xfa, 0x3a,
  0xba, 0xc1, 0x73, 0xbe, 0x19, 0x27, 0x8c, 0x3e, 0x30, 0xfd, 0x74, 0xbe,
  0xf7, 0xee, 0x68, 0xbe, 0xe5, 0xaf, 0x84, 0x3e, 0xd8, 0x5e, 0x21, 0x3d,
  0x65, 0x2e, 0x24, 0x3d, 0x58, 0x3f, 0x0c, 0xbd, 0x62, 0xac, 0x7d, 0x3e,
  0x4f, 0x7c, 0x7a, 0xbe, 0x18, 0xd5, 0x2c, 0x3d, 0x26, 0xa6, 0x48, 0xbd,
  0x69, 0x0e, 0xd3, 0x3d, 0x47, 0xec, 0x04, 0xbd, 0x01, 0xa3, 0x72, 0x3e,
  0xa0, 0xd7, 0xfa, 0xbe, 0x11, 0x44, 0x9e, 0xbe, 0x41, 0xe8, 0x03, 0x3f,
  0x9a, 0x5c, 0x99, 0xbe, 0x31, 0xcf, 0x68, 0xbb, 0xe0, 0x5c, 0x09, 0x3e,
  0x69, 0x70, 0xf1, 0xbe, 0x8b, 0xd4, 0x67, 0xbe, 0x2f, 0xda, 0xac, 0xbe,
  0x4e, 0x59, 0x8b, 0x3e, 0x37, 0xca, 0xb2, 0xbe, 0xd9, 0x34, 0x8f, 0x3e,
  0x8d, 0x82, 0x17, 0xbe, 0x7d, 0x87, 0xc6, 0x3e, 0x5d, 0xaf, 0x07, 0xbe,
  0x93, 0x85, 0xf0, 0x3d, 0x49, 0xde, 0xc9, 0xbd, 0x18, 0xb3, 0x89, 0x3d,
  0x6e, 0x4d, 0xb0, 0xbe, 0xcb, 0x93, 0xc0, 0xbd, 0x96, 0xf8, 0xd7, 0xbe,
  0xe5, 0xd3, 0xa6, 0x3e, 0x48, 0x64, 0x47, 0xbd, 0x7d, 0x3b, 0x41, 0xbd,
  0x2b, 0x28, 0xaa, 0xbe, 0xb2, 0x12, 0xbc, 0x3e, 0xd6, 0x50, 0x32, 0xbd,
  0xc9, 0xfc, 0x9a, 0xbe, 0x51, 0x6f, 0x88, 0xbe, 0xa1, 0x59, 0x99, 0x3e,
  0x55, 0xea, 0xd2, 0x3c, 0x97, 0x01, 0x4d, 0xbe, 0x72, 0x05, 0x01, 0x3c,
  0xb8, 0x5d, 0x1b, 0x3e, 0x3c, 0xb3, 0xfa, 0xbd, 0xdb, 0x88, 0xb3, 0xbe,
  0x9b, 0x1d, 0x0d, 0x3f, 0x10, 0x2b, 0x4f, 0x3e, 0xe8, 0x7d, 0xdc, 0xbd,
  0xd6, 0xcc, 0x14, 0xbe, 0xdd, 0x79, 0xca, 0xbd, 0xe0, 0x2d, 0xcd, 0xbd,
  0x1b, 0xf3, 0x61, 0xbd, 0x07, 0xde, 0x26, 0xbe, 0x04, 0x2a, 0x81, 0x3e,
  0xb2, 0x81, 0x21, 0xbf, 0xb5, 0x9c, 0x7e, 0x3e, 0x44, 0xb0, 0x01, 0xbe,
  0xaa, 0xbc, 0x42, 0x3f, 0xdb, 0x3a, 0x0e, 0xbf, 0x46, 0x12, 0x43, 0xbe,
  0xa6, 0x63, 0x68, 0xbd, 0x44, 0x39, 0x6c, 0xbe, 0xfb, 0x7a, 0x5d, 0xbc,
  0x2e, 0x6d, 0xea, 0x3d, 0x74, 0xbb, 0x95, 0x3e, 0x18, 0xa8, 0x8a, 0xbe,
  0xa4, 0x4e, 0x1f, 0xbf, 0x50, 0x96, 0xf7, 0x3d, 0x8e, 0xf0, 0x6d, 0xbd,
  0xd0, 0xc4, 0xba, 0xbd, 0x66, 0x73, 0x2a, 0xbd, 0x26, 0x0f, 0xf9, 0xbe,
  0xb8, 0xf2, 0x1a, 0x3f, 0xad, 0x2a, 0x21, 0xbc, 0x01, 0x23, 0x86, 0xbd,
  0x3c, 0x95, 0xee, 0x3d, 0x17, 0xe2, 0x69, 0x3e, 0x85, 0x31, 0x0e, 0xbf,
  0xf1, 0x05, 0x95, 0x3d, 0xec, 0x64, 0x9d, 0xbe, 0x1a, 0xce, 0xf7, 0x3c,
  0x01, 0x3b, 0x9d, 0xbd, 0xbc, 0xda, 0x79, 0x3e, 0x16, 0x54, 0x1c, 0x3e,
  0x39, 0x89, 0x1b, 0xbe, 0xdd, 0x36, 0x9f, 0x3e, 0x8e, 0x1c, 0x53, 0x3e,
  0xed, 0x70, 0xb1, 0xbc, 0xed, 0x18, 0x85, 0xbd, 0xa4, 0x80, 0x81, 0x3d,
  0x19, 0x6c, 0x05, 0xbe, 0xe9, 0xaf, 0xac, 0xbe, 0xca, 0x12, 0x15, 0x3f,
  0x92, 0x66, 0xa6, 0xbd, 0x98, 0x7b, 0x9c, 0xbe, 0xf3, 0x8d, 0xdc, 0x3e,
  0x18, 0x85, 0x14, 0x3e, 0x9f, 0xab, 0x3e, 0x3d, 0xee, 0x36, 0xf1, 0x3d,
  0x62, 0xff, 0x19, 0xbf, 0x27, 0x04, 0x3e, 0x3e, 0x76, 0x6d, 0x00, 0xbf,
  0x56, 0x48, 0x09, 0x3f, 0x86, 0x7c, 0x2e, 0xbe, 0x1b, 0xa6, 0xd4, 0xbd,
  0x16, 0x84, 0x69, 0xbe, 0xb8, 0xce, 0x61, 0x3b, 0xce, 0x98, 0xf6, 0x3c,
  0x64, 0x8d, 0x8d, 0x3b, 0xfe, 0x13, 0xda, 0xbb, 0x10, 0xfe, 0xc6, 0x3b,
  0x66, 0xba, 0xac, 0xbb, 0x76, 0xe2, 0x8e, 0x3a, 0x52, 0x99, 0x02, 0xbb,
  0xa6, 0x4c, 0x1f, 0x3b, 0x77, 0x4f, 0x24, 0x3c, 0x48, 0xf7, 0xb1, 0x3e,
  0xc9, 0x15, 0x0f, 0xbd, 0x21, 0x38, 0xdb, 0xbd, 0x0c, 0x4d, 0x36, 0xbf,
  0x08, 0x2a, 0x94, 0x3e, 0xc4, 0x46, 0x81, 0x3c, 0x53, 0x13, 0xc1, 0x3d,
  0xac, 0x9c, 0xab, 0x3e, 0x80, 0xd1, 0x85, 0xbe, 0x43, 0xd6, 0xd9, 0xbe,
  0x18, 0x8a, 0x65, 0xbe, 0x85, 0x59, 0x84, 0xbe, 0x9e, 0xc0, 0x64, 0x3e,
  0xa5, 0x3c, 0x5a, 0xbd, 0xd1, 0x53, 0x8d, 0xbe, 0x8d, 0x63, 0xce, 0xbe,
  0xf2, 0xac, 0xab, 0x3d, 0x84, 0xb1, 0x6b, 0x3b, 0xf6, 0xb9, 0x8d, 0x3c,
  0x64, 0xb8, 0xde, 0x3d, 0xdf, 0xe9, 0x1f, 0x3c, 0x85, 0xdc, 0x23, 0x3c,
  0xd5, 0xdd, 0x9e, 0xbb, 0x57, 0xeb, 0xba, 0xbb, 0x97, 0x41, 0x25, 0xbc,
  0x07, 0x8a, 0x89, 0xbd, 0x28, 0xeb, 0x8c, 0xbe, 0xda, 0xe4, 0x4f, 0x3e,
  0xae, 0xc9, 0xef, 0xbd, 0x9f, 0x1b, 0x0f, 0x3e, 0xd7, 0x80, 0xd5, 0x3d,
  0x77, 0x97, 0x4a, 0x3d, 0x57, 0x64, 0x26, 0xbe, 0x0c, 0xa9, 0xd0, 0xbe,
  0x1e, 0x2a, 0x83, 0x3d, 0x6d, 0xd4, 0xd7, 0xbc, 0xda, 0x58, 0x22, 0xbf,
  0x4c, 0x87, 0x6f, 0x3e, 0x22, 0x16, 0x05, 0xbe, 0xb7, 0x57, 0x50, 0xbe,
  0x91, 0x34, 0x6f, 0x3c, 0x46, 0x87, 0x81, 0x3c, 0x2d, 0xc9, 0xbe, 0xbe,
  0x47, 0x67, 0x8b, 0x3e, 0x76, 0x29, 0xd6, 0x3d, 0x4e, 0x5b, 0xea, 0x3e,
  0x41, 0x57, 0xac, 0xbe, 0x98, 0x77, 0x48, 0x3e, 0x22, 0x66, 0x01, 0xbf,
  0x46, 0x51, 0x22, 0xbe, 0x78, 0x92, 0xc1, 0xbe, 0xd6, 0x74, 0x15, 0x3e,
  0x74, 0x04, 0x7e, 0xbe, 0x60, 0xd4, 0x2e, 0xbe, 0xfd, 0x1e, 0xf2, 0x3e,
  0xa0, 0xd4, 0x27, 0xbe, 0xa7, 0xbf, 0xc0, 0xbc, 0xae, 0x66, 0x02, 0xbe,
  0xa9, 0xfa, 0x2d, 0x3e, 0x54, 0x71, 0x53, 0xbe, 0x4c, 0x7a, 0xc9, 0x3e,
  0x64, 0xd2, 0x14, 0xbf, 0x14, 0x9b, 0x26, 0x3e, 0x1b, 0x45, 0xe8, 0xbe,
  0x83, 0xa6, 0x83, 0xbc, 0x28, 0x0d, 0x89, 0xbc, 0x7b, 0x6e, 0x3c, 0x3f,
  0x50, 0x98, 0x0c, 0xbf, 0x0a, 0xee, 0x7f, 0xbd, 0x22, 0x11, 0xc8, 0x3b,
  0x46, 0x2d, 0xac, 0xbe, 0xc7, 0x95, 0x3d, 0x3e, 0xa6, 0x34, 0x01, 0x3e,
  0x6a, 0x59, 0x01, 0x3e, 0x98, 0x0e, 0xdd, 0x3c, 0x5b, 0x1b, 0x02, 0x3d,
  0xd6, 0xe6, 0xbe, 0x3d, 0xe4, 0x80, 0xe8, 0xbd, 0x5d, 0x23, 0x74, 0x3e,
  0x01, 0x86, 0x40, 0xbe, 0xd6, 0x0c, 0xc8, 0x3d, 0x7e, 0xac, 0xcc, 0xbe,
  0xf4, 0xdb, 0x3d, 0x3d, 0x44, 0x5e, 0xf5, 0xbe, 0xa8, 0x55, 0x97, 0xbb,
  0x1d, 0x35, 0xd5, 0xbe, 0x65, 0xb4, 0x02, 0x3f, 0x48, 0x2e, 0x43, 0xbe,
  0x45, 0xc7, 0xbc, 0xbe, 0x3f, 0x67, 0x22, 0x3f, 0x75, 0x94, 0xd1, 0xbe,
  0x36, 0x4e, 0xd0, 0x3e, 0x31, 0x0c, 0x4b, 0x3c, 0xb0, 0x05, 0x6f, 0xbd,
  0xb7, 0x2a, 0x94, 0xbe, 0xb3, 0x26, 0x54, 0xbe, 0x67, 0x65, 0xb5, 0xbd,
  0xc1, 0x56, 0x67, 0x3e, 0x9d, 0xc8, 0x0c, 0x3e, 0xb1, 0x34, 0xbd, 0xbe,
  0x43, 0x22, 0x9d, 0xbe, 0x94, 0xaa, 0x03, 0x3f, 0x95, 0xd8, 0x87, 0xbe,
  0xf0, 0x97, 0xaa, 0x3d, 0x7d, 0xd7, 0x48, 0xbe, 0xac, 0x1f, 0x4e, 0x3c,
  0x37, 0xb5, 0x96, 0xbe, 0x06, 0x44, 0xb0, 0x3e, 0x8d, 0x74, 0xfc, 0xbe,
  0xc0, 0x8e, 0xc7, 0x3d, 0xd2, 0x39, 0xa4, 0xbe, 0x85, 0x16, 0x5e, 0x3e,
  0x67, 0xe1, 0xf3, 0xbe, 0x35, 0x93, 0xd3, 0xbe, 0xb3, 0x6c, 0x00, 0xbe,
  0x84, 0x9b, 0xe8, 0xbe, 0xca, 0xf1, 0xd9, 0xbc, 0xde, 0x86, 0x6e, 0xbe,
  0xa7, 0x13, 0x3d, 0xbe, 0x29, 0x74, 0x99, 0x3e, 0x74, 0x33, 0x7b, 0xbe,
  0xbd, 0x2e, 0x66, 0x3d, 0x54, 0x67, 0xe0, 0xbd, 0xd8, 0xae, 0x4a, 0x3e,
  0x41, 0x0b, 0x2c, 0xbe, 0xb1, 0xcf, 0x80, 0xbd, 0xf4, 0xf0, 0xdd, 0x3e,
  0x40, 0x9c, 0x20, 0xbf, 0x39, 0xe0, 0x40, 0xbd, 0xa2, 0x8d, 0x57, 0x3e,
  0x62, 0xb4, 0x64, 0x3d, 0xf5, 0x99, 0x2b, 0x3e, 0x9d, 0xf0, 0x64, 0xbe,
  0x45, 0x4f, 0xa7, 0x3e, 0x48, 0x0e, 0x7e, 0xbe, 0x79, 0xae, 0xaf, 0x3d,
  0xf3, 0xaa, 0x91, 0x3e, 0xc5, 0x67, 0x9e, 0xbe, 0x01, 0xae, 0x39, 0xbd,
  0xec, 0x0a, 0x69, 0xbe, 0xe6, 0x6a, 0x9a, 0x3e, 0xec, 0xba, 0xb2, 0xbe,
  0xd0, 0xd6, 0x93, 0x3e, 0x6d, 0x9a, 0xb3, 0xbc, 0x03, 0x46, 0xce, 0xbd,
  0xde, 0xd2, 0x80, 0x3d, 0xac, 0x88, 0x3d, 0x3d, 0x7e, 0xcf, 0xc0, 0xbc,
  0x13, 0xc9, 0x5a, 0xbf, 0xb3, 0x54, 0x2d, 0x3d, 0x71, 0xc6, 0xb2, 0x3d,
  0xe5, 0xe2, 0xf4, 0x3d, 0x19, 0xcb, 0xdf, 0x3d, 0xdc, 0x02, 0x77, 0xbd,
  0x87, 0x3a, 0xee, 0xbd, 0xf5, 0xac, 0x27, 0xbe, 0x51, 0x3a, 0x11, 0xbe,
  0xfd, 0x57, 0x84, 0x3d, 0x4f, 0x9a, 0x54, 0x3e, 0xb2, 0xee, 0xe6, 0xbe,
  0x5d, 0xc0, 0xc7, 0x3e, 0xf0, 0x6c, 0xf0, 0xbe, 0x87, 0xd8, 0x81, 0xbd,
  0xa0, 0xad, 0xbc, 0xbe, 0x84, 0xcb, 0x5f, 0x3e, 0x78, 0xbb, 0xd0, 0xbd,
  0xec, 0xa9, 0xb6, 0x3e, 0x70, 0x20, 0x87, 0xbe, 0xb7, 0xce, 0xd5, 0x3d,
  0x87, 0x97, 0x2a, 0x3e, 0x66, 0x0f, 0x0d, 0xbd, 0x8f, 0xe0, 0xdd, 0xbc,
  0xb7, 0xeb, 0x3c, 0x3e, 0x77, 0x65, 0xbc, 0xbe, 0x92, 0xea, 0x3d, 0x3e,
  0xe7, 0x6f, 0x13, 0xbc, 0xa2, 0x0b, 0x2c, 0x3c, 0x31, 0x0a, 0xc5, 0x3e,
  0x70, 0x9f, 0xba, 0xbd, 0x17, 0x06, 0xa7, 0xbe, 0xbb, 0x04, 0xe7, 0xbd,
  0xbf, 0x0f, 0x69, 0x3e, 0xbb, 0x76, 0x87, 0xbe, 0x8d, 0x4a, 0x5b, 0xbd,
  0x0e, 0x11, 0x8a, 0xbc, 0x5e, 0x92, 0xfd, 0x3e, 0x52, 0xfa, 0x88, 0xbd,
  0x34, 0xc7, 0xa2, 0xbe, 0xc7, 0x85, 0x10, 0xbf, 0xe1, 0xa8, 0x87, 0xbe,
  0xba, 0xdd, 0x00, 0x3e, 0xd8, 0x3c, 0x55, 0x3e, 0xee, 0xea, 0xb8, 0xbe,
  0x42, 0x8a, 0x4d, 0xbe, 0x72, 0xb6, 0x26, 0xbf, 0x3a, 0xc3, 0xc9, 0xbd,
  0x65, 0x71, 0x0c, 0xbe, 0xf2, 0xbb, 0xd8, 0x3e, 0x18, 0xf0, 0x20, 0xbf,
  0x5c, 0x45, 0x01, 0x3e, 0x4b, 0xce, 0xdf, 0xbd, 0xac, 0x9e, 0x0e, 0x3e,
  0xff, 0xaf, 0x69, 0xbd, 0x12, 0x6d, 0xfe, 0x3d, 0x93, 0x2c, 0x1b, 0xbe,
  0x53, 0x18, 0x8b, 0x3c, 0xb7, 0x28, 0xad, 0xbd, 0x5e, 0x79, 0x42, 0xbe,
  0xe6, 0xd0, 0xd8, 0xbe, 0x97, 0x3a, 0x05, 0x3f, 0x8a, 0x7c, 0x26, 0xbc,
  0xe4, 0x37, 0x4b, 0xbe, 0x97, 0xcb, 0xf6, 0x3d, 0x49, 0x1c, 0x51, 0x3d,
  0x59, 0x45, 0x82, 0xbe, 0xe1, 0xf5, 0x83, 0x3e, 0xd4, 0xcd, 0x00, 0x3f,
  0xb6, 0x18, 0x13, 0xbf, 0xa1, 0x19, 0x43, 0xbe, 0x1b, 0x82, 0xaa, 0xbe,
  0x77, 0x7f, 0xb5, 0x3d, 0x71, 0xdb, 0x07, 0xbf, 0xec, 0xcd, 0x59, 0x3d,
  0x21, 0xee, 0xea, 0xbc, 0x90, 0x1c, 0x05, 0xbf, 0x35, 0xfe, 0xde, 0x3d,
  0x79, 0xdb, 0x4d, 0xbc, 0xcd, 0xc0, 0xb7, 0xbd, 0x9d, 0x4d, 0x12, 0x3d,
  0x5e, 0x1d, 0x09, 0x3e, 0x58, 0x34, 0xe4, 0x3e, 0xaa, 0xe4, 0x7a, 0x3d,
  0x21, 0xb9, 0xe5, 0xbc, 0x88, 0x17, 0x69, 0xbe, 0xa3, 0xcc, 0xe2, 0xbc,
  0x2e, 0x98, 0xa8, 0x3e, 0xf4, 0x17, 0xd9, 0xbe, 0x8c, 0x60, 0x18, 0xbe,
  0x9e, 0xa9, 0x09, 0xbc, 0x42, 0x48, 0xd6, 0x3d, 0x14, 0x5a, 0x04, 0xbe,
  0xb2, 0xa8, 0xa5, 0x3e, 0x4c, 0x33, 0x1f, 0x3d, 0x34, 0x4a, 0x3f, 0x3e,
  0x4a, 0xf1, 0x83, 0xbe, 0xe3, 0xa5, 0xa0, 0xbe, 0x3a, 0xa6, 0xb3, 0xbe,
  0x5c, 0xff, 0x93, 0xbc, 0x13, 0xc6, 0x3b, 0xbe, 0x0c, 0x27, 0x97, 0x3e,
  0x97, 0xf8, 0x82, 0x3e, 0x9c, 0xda, 0xb8, 0x3e, 0x38, 0x39, 0xc1, 0xbe,
  0x6c, 0x82, 0x8e, 0xbc, 0xfd, 0x08, 0x3b, 0xbd, 0x98, 0xb0, 0xcf, 0x3d,
  0x61, 0xad, 0x65, 0xbe, 0xe2, 0xe9, 0xbf, 0x3e, 0xc1, 0x28, 0xfa, 0xbe,
  0xd6, 0x89, 0x95, 0x3e, 0x8e, 0x44, 0x28, 0xbe, 0x9a, 0xb8, 0xe6, 0xbd,
  0x81, 0x8b, 0x3d, 0xbe, 0xea, 0xe1, 0xc8, 0x3c, 0x5e, 0xab, 0x22, 0xbe,
  0x02, 0x88, 0x9c, 0xbe, 0xcd, 0x05, 0xfd, 0xbd, 0x0c, 0x7b, 0x00, 0xbd,
  0x86, 0xde, 0x15, 0x3d, 0x37, 0x1e, 0x33, 0xbe, 0xf6, 0x8c, 0xa2, 0x3d,
  0x52, 0x7e, 0xe1, 0x3e, 0x53, 0x09, 0xde, 0xbe, 0x17, 0x77, 0xc2, 0xbe,
  0x35, 0x70, 0xb2, 0x3e, 0x80, 0xec, 0x14, 0x3e, 0x8b, 0xb2, 0xaa, 0xbd,
  0xcb, 0x3e, 0xed, 0x3d, 0x17, 0x19, 0xf3, 0xbe, 0x17, 0x9a, 0xfd, 0x3e,
  0xa1, 0x35, 0xfd, 0xbd, 0x33, 0xb4, 0xb4, 0xbe, 0x95, 0x76, 0x8c, 0xbe,
  0x37, 0x8f, 0x7b, 0xbd, 0xb9, 0x63, 0x66, 0x3d, 0x4d, 0x1a, 0x8d, 0xbe,
  0xa5, 0x89, 0x9f, 0x3e, 0x6f, 0xc8, 0xf4, 0xbd, 0xe3, 0x6a, 0x54, 0x3e,
  0xbf, 0x98, 0xa5, 0x3c, 0x54, 0x25, 0xc8, 0xbb, 0x7e, 0x6a, 0x83, 0xbb,
  0xba, 0x0b, 0xa2, 0x3b, 0xde, 0x94, 0xea, 0xbc, 0x3e, 0x53, 0x97, 0x3c,
  0x1f, 0x15, 0xbb, 0x3d, 0xc2, 0x76, 0xf5, 0xbe, 0x39, 0x80, 0x64, 0x3e,
  0x96, 0xe2, 0x82, 0x3d, 0x2a, 0x96, 0xce, 0xbd, 0x94, 0x94, 0x02, 0x3c,
  0x72, 0x95, 0x16, 0x3c, 0x64, 0x33, 0x08, 0xba, 0x56, 0xdc, 0x98, 0xbb,
  0xb6, 0xa7, 0x5c, 0xbc, 0x3b, 0x75, 0x9c, 0xbc, 0xd2, 0x33, 0x0b, 0xbc,
  0x20, 0x13, 0x28, 0x3e, 0x78, 0xda, 0x5c, 0xbe, 0x10, 0x4a, 0x1d, 0xbd,
  0x6f, 0xf9, 0x3a, 0xbe, 0x42, 0x22, 0x10, 0x3f, 0x88, 0x11, 0xf3, 0xbe,
  0x5d, 0x6a, 0xae, 0xbe, 0xb3, 0xa3, 0x84, 0x3e, 0x20, 0x52, 0x5a, 0x3e,
  0x54, 0x1e, 0xec, 0xbe, 0xf7, 0xf0, 0x7e, 0x3e, 0x40, 0x2c, 0x37, 0xbe,
  0x47, 0x8a, 0x62, 0x3e, 0x3f, 0xd4, 0x9d, 0xbe, 0x80, 0x70, 0x44, 0xbe,
  0xc3, 0x2d, 0x41, 0xbe, 0xab, 0x71, 0xef, 0xbd, 0x62, 0xc5, 0xe0, 0xb8,
  0x2a, 0x47, 0x1a, 0xba, 0xeb, 0xcb, 0x1a, 0x3b, 0x94, 0xcf, 0xfa, 0x3a,
  0x85, 0x47, 0x63, 0xbb, 0xf1, 0xe2, 0x19, 0x3b, 0x77, 0xfc, 0x00, 0xbe,
  0x39, 0x1a, 0x01, 0xbe, 0x9f, 0x97, 0x04, 0xbe, 0x9c, 0xb9, 0xe3, 0xbe,
  0x45, 0x6c, 0xab, 0x3e, 0xf6, 0xce, 0x54, 0xbe, 0x5f, 0xd7, 0x75, 0xbc,
  0x3b, 0xbb, 0x83, 0xbd, 0xd3, 0x1f, 0x9c, 0xbe, 0x3d, 0xde, 0x8c, 0xbd,
  0xc5, 0xe8, 0x09, 0x3f, 0xe2, 0x78, 0x63, 0x3c, 0xf6, 0xcf, 0xc5, 0xbe,
  0x17, 0xf6, 0x90, 0xbd, 0xdf, 0x32, 0x90, 0xbe, 0xce, 0xc2, 0x45, 0x3c,
  0x69, 0xe5, 0xb8, 0x3c, 0xde, 0x54, 0x2b, 0xbc, 0x5e, 0x99, 0x0a, 0xbd,
  0xb9, 0x59, 0x8f, 0xbc, 0xca, 0x6a, 0xb5, 0x3d, 0x95, 0x9a, 0x70, 0xbe,
  0x44, 0x59, 0x48, 0x3e, 0x99, 0xe7, 0x4f, 0xbe, 0xa7, 0xef, 0xc8, 0xbd,
  0x4b, 0x69, 0xa7, 0x3e, 0x5f, 0xeb, 0x05, 0xbe, 0x8c, 0xc5, 0x3b, 0x3e,
  0x7f, 0x07, 0xe8, 0xbe, 0x56, 0x3d, 0x87, 0x3e, 0xbf, 0x61, 0xaf, 0xbd,
  0xa3, 0x5a, 0x49, 0xbc, 0xd2, 0xfc, 0xb9, 0xbd, 0x81, 0x6e, 0x89, 0xbe,
  0xdb, 0xea, 0x0f, 0x3f, 0x0e, 0x2f, 0xa2, 0x3d, 0xa3, 0x75, 0x13, 0xbe,
  0xd2, 0xa1, 0x68, 0xbe, 0xbf, 0x28, 0x5d, 0x3e, 0x45, 0xb5, 0x6a, 0x3b,
  0x2b, 0xa9, 0xf9, 0x3b, 0xf7, 0xfb, 0x1c, 0x3d, 0xcb, 0x7d, 0xc0, 0xbe,
  0x41, 0xe0, 0xf7, 0x3c, 0xcb, 0xe7, 0x4b, 0xbe, 0xf4, 0x11, 0x03, 0xbf,
  0xd4, 0x7e, 0xaa, 0x3e, 0xb7, 0x5f, 0x58, 0xbe, 0xc8, 0x5b, 0x22, 0x3c,
  0x07, 0x56, 0x90, 0x3e, 0x72, 0x4e, 0xac, 0xbd, 0xaf, 0xd7, 0xb1, 0x3e,
  0x18, 0x84, 0xad, 0x3d, 0x77, 0x2f, 0x20, 0xbf, 0xa8, 0x55, 0x04, 0x3f,
  0x9b, 0xae, 0x32, 0xbe, 0xb2, 0xba, 0x2b, 0x3e, 0x3b, 0x5c, 0x31, 0x3e,
  0x9a, 0x36, 0xb5, 0xbe, 0xca, 0x45, 0x7e, 0x3e, 0x7f, 0xa7, 0x0d, 0x3e,
  0x36, 0x73, 0x7b, 0xbe, 0x83, 0xd3, 0xbd, 0xbd, 0xf8, 0xa1, 0xd4, 0x3d,
  0x7b, 0x6a, 0xca, 0xbe, 0xe6, 0xfc, 0xff, 0xff, 0x04, 0x00, 0x00, 0x00,
  0x08, 0x00, 0x00, 0x00, 0xff, 0xff, 0xff, 0xff, 0x05, 0x00, 0x00, 0x00,
  0xfa, 0xfc, 0xff, 0xff, 0x04, 0x00, 0x00, 0x00, 0x68, 0x00, 0x00, 0x00,
  0xf7, 0x37, 0x6c, 0xc0, 0x1e, 0x9d, 0xa2, 0xbe, 0x57, 0xbe, 0x31, 0x40,
  0x9e, 0x9f, 0xd2, 0x3e, 0xae, 0x0e, 0xa2, 0xbb, 0x9c, 0x1a, 0xbe, 0xbf,
  0xcb, 0x86, 0xcc, 0x3e, 0x83, 0x25, 0xde, 0x3e, 0xde, 0xbf, 0x0d, 0xc0,
  0x0c, 0xe5, 0x06, 0x3f, 0x11, 0xb2, 0x0d, 0xbe, 0xbd, 0xb0, 0x4b, 0xc0,
  0x3c, 0xa2, 0xa9, 0xbc, 0x4d, 0x7d, 0xcd, 0x3d, 0x45, 0x63, 0x58, 0x40,
  0xe8, 0xce, 0xf8, 0x3f, 0x5d, 0x01, 0x94, 0x3f, 0x13, 0x7b, 0xd1, 0xbe,
  0xde, 0x48, 0x1d, 0x3e, 0x1b, 0xc6, 0x88, 0x3f, 0x24, 0x69, 0xef, 0xbf,
  0xb5, 0x25, 0x87, 0xbf, 0x6b, 0x74, 0x8a, 0xbf, 0xe9, 0xf2, 0x1f, 0x3f,
  0xdb, 0xac, 0xa9, 0x3d, 0x00, 0xdb, 0x81, 0xbf, 0x6e, 0xfd, 0xff, 0xff,
  0x04, 0x00, 0x00, 0x00, 0x00, 0x02, 0x00, 0x00, 0x98, 0xd6, 0x8f, 0xc0,
  0x64, 0xbb, 0x44, 0xbf, 0x98, 0xf9, 0xb1, 0x3f, 0x08, 0x81, 0x3d, 0xc0,
  0x89, 0x72, 0x40, 0xbf, 0x81, 0x3e, 0xd2, 0x3f, 0xda, 0x47, 0x08, 0x41,
  0x12, 0x15, 0x22, 0x40, 0x3f, 0x2a, 0x3c, 0x3f, 0x7d, 0xd4, 0x7a, 0x3f,
  0x03, 0xd9, 0x07, 0x40, 0xbf, 0xcb, 0x26, 0xc0, 0xac, 0x49, 0x3a, 0x3f,
  0x1d, 0xd6, 0x7a, 0x3f, 0x10, 0x51, 0x83, 0x40, 0x0c, 0xf2, 0xbc, 0x40,
  0x26, 0x7d, 0xb5, 0x40, 0x31, 0x5a, 0xa7, 0xc0, 0x90, 0xe0, 0xca, 0xbe,
  0x8d, 0x59, 0x4e, 0xbe, 0x25, 0x23, 0x92, 0x40, 0x4a, 0x47, 0x1f, 0x40,
  0xcd, 0xfc, 0x14, 0xc0, 0xea, 0xe3, 0x94, 0x3f, 0xe2, 0xd0, 0x8a, 0x40,
  0x4f, 0xf7, 0x8d, 0xc0, 0xb5, 0x47, 0x52, 0x40, 0xf8, 0xc8, 0xb3, 0x3f,
  0x56, 0xca, 0x86, 0xc0, 0xbc, 0x8c, 0x15, 0xbf, 0xcc, 0xdc, 0xb0, 0xc0,
  0x30, 0xee, 0x24, 0x3f, 0x16, 0xc4, 0x8e, 0xbf, 0x1f, 0x0e, 0xc5, 0x3f,
  0x0d, 0x52, 0x11, 0xc0, 0x1f, 0x16, 0x6e, 0xc0, 0xe3, 0xee, 0x98, 0xc0,
  0x6f, 0x4d, 0x85, 0x40, 0xe6, 0x71, 0x20, 0xc0, 0x18, 0x01, 0x91, 0x3f,
  0x38, 0x59, 0x92, 0xbf, 0x9c, 0x44, 0x16, 0xc0, 0x7b, 0xee, 0x19, 0xc0,
  0x01, 0xab, 0xb1, 0x3f, 0xc2, 0xc4, 0x2d, 0xc0, 0x52, 0xe9, 0x45, 0xc0,
  0x3b, 0xae, 0xf1, 0xbf, 0xbe, 0x19, 0x82, 0xc0, 0x59, 0x77, 0x00, 0xc0,
  0x20, 0x13, 0x02, 0xbc, 0x74, 0xe2, 0x28, 0x3e, 0xf1, 0xb6, 0x06, 0xc0,
  0xa2, 0xe3, 0xdb, 0xc0, 0x9c, 0x7b, 0x09, 0xc0, 0xe6, 0x70, 0x1c, 0x40,
  0xef, 0xe0, 0x1d, 0x40, 0x58, 0x7c, 0xcb, 0xbd, 0xd7, 0xcb, 0xdf, 0x3e,
  0x9f, 0x43, 0xa1, 0xc0, 0xcf, 0xec, 0x08, 0xc0, 0x92, 0xde, 0x2d, 0xbe,
  0x67, 0x2f, 0x43, 0xbf, 0x10, 0xea, 0x92, 0xc0, 0xec, 0x2d, 0x5d, 0xc0,
  0x18, 0x39, 0xe2, 0xc0, 0xd0, 0x3e, 0xe9, 0x3f, 0xec, 0xf2, 0xd5, 0xbf,
  0xdd, 0x4a, 0xf2, 0x3f, 0xc6, 0x11, 0x83, 0xc0, 0xac, 0x57, 0x88, 0x40,
  0xef, 0xd4, 0x87, 0x40, 0xaa, 0x7c, 0x5a, 0xbf, 0x0b, 0xf0, 0x2e, 0xbf,
  0xd0, 0x5c, 0x2d, 0x3f, 0x2f, 0x1e, 0x42, 0xc0, 0xea, 0x4d, 0x36, 0xc0,
  0xac, 0xee, 0xd2, 0xc0, 0xe7, 0x04, 0x4b, 0xc0, 0xdf, 0xae, 0x07, 0xc0,
  0x65, 0x45, 0xa0, 0x40, 0x96, 0x48, 0x9b, 0xc0, 0x66, 0x2b, 0x22, 0x3f,
  0x24, 0x6f, 0xd7, 0x3f, 0x97, 0xa5, 0xda, 0xc0, 0x45, 0x7c, 0xbc, 0xc0,
  0xcf, 0x5d, 0xc3, 0xc0, 0x13, 0xe5, 0x1b, 0x40, 0x1d, 0x1d, 0xd4, 0xbf,
  0x22, 0xea, 0xdf, 0x3f, 0x95, 0xc0, 0xc8, 0x3f, 0xe0, 0x29, 0x2f, 0xbc,
  0x9d, 0x33, 0xf3, 0xc0, 0x87, 0x10, 0x24, 0xc0, 0x0d, 0xc6, 0x5e, 0xc0,
  0xed, 0x5d, 0x0f, 0xc1, 0xe8, 0x10, 0x0a, 0x3f, 0x0f, 0x23, 0xa8, 0x3f,
  0x3f, 0xe8, 0x2c, 0x3f, 0xdb, 0x4d, 0xc2, 0xc0, 0x41, 0x14, 0x65, 0x3e,
  0x94, 0x4f, 0xa2, 0xc0, 0x00, 0x05, 0x38, 0xbd, 0x0a, 0x6d, 0xcb, 0xc0,
  0x86, 0xea, 0x4c, 0x3e, 0x43, 0x74, 0x21, 0x3f, 0x2b, 0x39, 0x2d, 0xc0,
  0xc2, 0x1c, 0xe5, 0xc0, 0x57, 0x4f, 0x63, 0xc0, 0x60, 0xee, 0xc3, 0xbf,
  0x14, 0x94, 0x33, 0xc0, 0x28, 0x13, 0xc4, 0xc0, 0x00, 0x41, 0xa5, 0xbe,
  0x45, 0x28, 0xb0, 0xc0, 0x2d, 0x72, 0xc1, 0xc0, 0x42, 0xb3, 0x1f, 0xbf,
  0xbd, 0x95, 0x7a, 0xc0, 0x48, 0xab, 0xab, 0x40, 0xcb, 0x92, 0x1c, 0xc0,
  0x34, 0x24, 0x4d, 0xc0, 0xde, 0x4f, 0xb7, 0x40, 0x29, 0x38, 0x0a, 0x40,
  0x0b, 0xbf, 0xc0, 0xc0, 0x6e, 0x1b, 0x1a, 0xbf, 0x5b, 0x20, 0xd7, 0x3e,
  0x9d, 0xe7, 0x45, 0xbe, 0xf4, 0xc5, 0x04, 0x40, 0xc3, 0x64, 0x2e, 0x3f,
  0x8b, 0x99, 0x1b, 0x40, 0xa0, 0xfa, 0xff, 0xff, 0xa4, 0xfa, 0xff, 0xff,
  0x0f, 0x00, 0x00, 0x00, 0x4d, 0x4c, 0x49, 0x52, 0x20, 0x43, 0x6f, 0x6e,
  0x76, 0x65, 0x72, 0x74, 0x65, 0x64, 0x2e, 0x00, 0x01, 0x00, 0x00, 0x00,
  0x14, 0x00, 0x00, 0x00, 0x00, 0x00, 0x0e, 0x00, 0x18, 0x00, 0x14, 0x00,
  0x10, 0x00, 0x0c, 0x00, 0x08, 0x00, 0x04, 0x00, 0x0e, 0x00, 0x00, 0x00,
  0x14, 0x00, 0x00, 0x00, 0x1c, 0x00, 0x00, 0x00, 0x24, 0x01, 0x00, 0x00,
  0x28, 0x01, 0x00, 0x00, 0x2c, 0x01, 0x00, 0x00, 0x04, 0x00, 0x00, 0x00,
  0x6d, 0x61, 0x69, 0x6e, 0x00, 0x00, 0x00, 0x00, 0x04, 0x00, 0x00, 0x00,
  0xe8, 0x00, 0x00, 0x00, 0x98, 0x00, 0x00, 0x00, 0x40, 0x00, 0x00, 0x00,
  0x04, 0x00, 0x00, 0x00, 0x82, 0xff, 0xff, 0xff, 0x1c, 0x00, 0x00, 0x00,
  0x00, 0x00, 0x00, 0x09, 0x1c, 0x00, 0x00, 0x00, 0x20, 0x00, 0x00, 0x00,
  0x02, 0x00, 0x00, 0x00, 0x00, 0x00, 0x06, 0x00, 0x08, 0x00, 0x04, 0x00,
  0x06, 0x00, 0x00, 0x00, 0x00, 0x00, 0x80, 0x3f, 0x01, 0x00, 0x00, 0x00,
  0x09, 0x00, 0x00, 0x00, 0x01, 0x00, 0x00, 0x00, 0x08, 0x00, 0x00, 0x00,
  0xba, 0xff, 0xff, 0xff, 0x20, 0x00, 0x00, 0x00, 0x00, 0x00, 0x00, 0x08,
  0x20, 0x00, 0x00, 0x00, 0x24, 0x00, 0x00, 0x00, 0x01, 0x00, 0x00, 0x00,
  0x0c, 0x00, 0x08, 0x00, 0x00, 0x00, 0x00, 0x00, 0x00, 0x00, 0x07, 0x00,
  0x0c, 0x00, 0x00, 0x00, 0x00, 0x00, 0x00, 0x01, 0x01, 0x00, 0x00, 0x00,
  0x08, 0x00, 0x00, 0x00, 0x03, 0x00, 0x00, 0x00, 0x07, 0x00, 0x00, 0x00,
  0x05, 0x00, 0x00, 0x00, 0x02, 0x00, 0x00, 0x00, 0x00, 0x00, 0x0e, 0x00,
  0x1a, 0x00, 0x14, 0x00, 0x10, 0x00, 0x0c, 0x00, 0x0b, 0x00, 0x04, 0x00,
  0x0e, 0x00, 0x00, 0x00, 0x1c, 0x00, 0x00, 0x00, 0x00, 0x00, 0x00, 0x08,
  0x1c, 0x00, 0x00, 0x00, 0x20, 0x00, 0x00, 0x00, 0x01, 0x00, 0x00, 0x00,
  0x00, 0x00, 0x06, 0x00, 0x08, 0x00, 0x07, 0x00, 0x06, 0x00, 0x00, 0x00,
  0x00, 0x00, 0x00, 0x01, 0x01, 0x00, 0x00, 0x00, 0x07, 0x00, 0x00, 0x00,
  0x03, 0x00, 0x00, 0x00, 0x06, 0x00, 0x00, 0x00, 0x04, 0x00, 0x00, 0x00,
  0x01, 0x00, 0x00, 0x00, 0x00, 0x00, 0x0a, 0x00, 0x0c, 0x00, 0x00, 0x00,
  0x08, 0x00, 0x04, 0x00, 0x0a, 0x00, 0x00, 0x00, 0x08, 0x00, 0x00, 0x00,
  0x0c, 0x00, 0x00, 0x00, 0x01, 0x00, 0x00, 0x00, 0x06, 0x00, 0x00, 0x00,
  0x02, 0x00, 0x00, 0x00, 0x00, 0x00, 0x00, 0x00, 0x03, 0x00, 0x00, 0x00,
  0x01, 0x00, 0x00, 0x00, 0x09, 0x00, 0x00, 0x00, 0x01, 0x00, 0x00, 0x00,
  0x00, 0x00, 0x00, 0x00, 0x0a, 0x00, 0x00, 0x00, 0xc0, 0x03, 0x00, 0x00,
  0x54, 0x03, 0x00, 0x00, 0xe4, 0x02, 0x00, 0x00, 0x98, 0x02, 0x00, 0x00,
  0x38, 0x02, 0x00, 0x00, 0xbc, 0x01, 0x00, 0x00, 0x60, 0x01, 0x00, 0x00,
  0xd8, 0x00, 0x00, 0x00, 0x60, 0x00, 0x00, 0x00, 0x04, 0x00, 0x00, 0x00,
  0x7e, 0xfc, 0xff, 0xff, 0x00, 0x00, 0x00, 0x01, 0x14, 0x00, 0x00, 0x00,
  0x1c, 0x00, 0x00, 0x00, 0x1c, 0x00, 0x00, 0x00, 0x0a, 0x00, 0x00, 0x00,
  0x34, 0x00, 0x00, 0x00, 0x02, 0x00, 0x00, 0x00, 0xff, 0xff, 0xff, 0xff,
  0x1a, 0x00, 0x00, 0x00, 0x68, 0xfc, 0xff, 0xff, 0x19, 0x00, 0x00, 0x00,
  0x53, 0x74, 0x61, 0x74, 0x65, 0x66, 0x75, 0x6c, 0x50, 0x61, 0x72, 0x74,
  0x69, 0x74, 0x69, 0x6f, 0x6e, 0x65, 0x64, 0x43, 0x61, 0x6c, 0x6c, 0x3a,
  0x30, 0x00, 0x00, 0x00, 0x02, 0x00, 0x00, 0x00, 0x01, 0x00, 0x00, 0x00,
  0x1a, 0x00, 0x00, 0x00, 0xd6, 0xfc, 0xff, 0xff, 0x00, 0x00, 0x00, 0x01,
  0x14, 0x00, 0x00, 0x00, 0x1c, 0x00, 0x00, 0x00, 0x1c, 0x00, 0x00, 0x00,
  0x09, 0x00, 0x00, 0x00, 0x50, 0x00, 0x00, 0x00, 0x02, 0x00, 0x00, 0x00,
  0xff, 0xff, 0xff, 0xff, 0x1a, 0x00, 0x00, 0x00, 0xc0, 0xfc, 0xff, 0xff,
  0x34, 0x00, 0x00, 0x00, 0x73, 0x65, 0x71, 0x75, 0x65, 0x6e, 0x74, 0x69,
  0x61, 0x6c, 0x2f, 0x64, 0x65, 0x6e, 0x73, 0x65, 0x5f, 0x31, 0x2f, 0x4d,
  0x61, 0x74, 0x4d, 0x75, 0x6c, 0x3b, 0x73, 0x65, 0x71, 0x75, 0x65, 0x6e,
  0x74, 0x69, 0x61, 0x6c, 0x2f, 0x64, 0x65, 0x6e, 0x73, 0x65, 0x5f, 0x31,
  0x2f, 0x42, 0x69, 0x61, 0x73, 0x41, 0x64, 0x64, 0x00, 0x00, 0x00, 0x00,
  0x02, 0x00, 0x00, 0x00, 0x01, 0x00, 0x00, 0x00, 0x1a, 0x00, 0x00, 0x00,
  0x4a, 0xfd, 0xff, 0xff, 0x00, 0x00, 0x00, 0x01, 0x14, 0x00, 0x00, 0x00,
  0x1c, 0x00, 0x00, 0x00, 0x1c, 0x00, 0x00, 0x00, 0x08, 0x00, 0x00, 0x00,
  0x60, 0x00, 0x00, 0x00, 0x02, 0x00, 0x00, 0x00, 0xff, 0xff, 0xff, 0xff,
  0x80, 0x00, 0x00, 0x00, 0x34, 0xfd, 0xff, 0xff, 0x46, 0x00, 0x00, 0x00,
  0x73, 0x65, 0x71, 0x75, 0x65, 0x6e, 0x74, 0x69, 0x61, 0x6c, 0x2f, 0x64,
  0x65, 0x6e, 0x73, 0x65, 0x2f, 0x4d, 0x61, 0x74, 0x4d, 0x75, 0x6c, 0x3b,
  0x73, 0x65, 0x71, 0x75, 0x65, 0x6e, 0x74, 0x69, 0x61, 0x6c, 0x2f, 0x64,
  0x65, 0x6e, 0x73, 0x65, 0x2f, 0x52, 0x65, 0x6c, 0x75, 0x3b, 0x73, 0x65,
  0x71, 0x75, 0x65, 0x6e, 0x74, 0x69, 0x61, 0x6c, 0x2f, 0x64, 0x65, 0x6e,
  0x73, 0x65, 0x2f, 0x42, 0x69, 0x61, 0x73, 0x41, 0x64, 0x64, 0x00, 0x00,
  0x02, 0x00, 0x00, 0x00, 0x01, 0x00, 0x00, 0x00, 0x80, 0x00, 0x00, 0x00,
  0xce, 0xfd, 0xff, 0xff, 0x00, 0x00, 0x00, 0x01, 0x14, 0x00, 0x00, 0x00,
  0x1c, 0x00, 0x00, 0x00, 0x1c, 0x00, 0x00, 0x00, 0x07, 0x00, 0x00, 0x00,
  0x34, 0x00, 0x00, 0x00, 0x02, 0x00, 0x00, 0x00, 0xff, 0xff, 0xff, 0xff,
  0x05, 0x00, 0x00, 0x00, 0xb8, 0xfd, 0xff, 0xff, 0x1a, 0x00, 0x00, 0x00,
  0x73, 0x65, 0x71, 0x75, 0x65, 0x6e, 0x74, 0x69, 0x61, 0x6c, 0x2f, 0x66,
  0x6c, 0x61, 0x74, 0x74, 0x65, 0x6e, 0x2f, 0x52, 0x65, 0x73, 0x68, 0x61,
  0x70, 0x65, 0x00, 0x00, 0x02, 0x00, 0x00, 0x00, 0x01, 0x00, 0x00, 0x00,
  0x05, 0x00, 0x00, 0x00, 0x42, 0xff, 0xff, 0xff, 0x00, 0x00, 0x00, 0x01,
  0x20, 0x00, 0x00, 0x00, 0x40, 0x00, 0x00, 0x00, 0x06, 0x00, 0x00, 0x00,
  0x00, 0x00, 0x00, 0x09, 0x54, 0x00, 0x00, 0x00, 0x0c, 0x00, 0x0c, 0x00,
  0x00, 0x00, 0x00, 0x00, 0x08, 0x00, 0x04, 0x00, 0x0c, 0x00, 0x00, 0x00,
  0x08, 0x00, 0x00, 0x00, 0x14, 0x00, 0x00, 0x00, 0x01, 0x00, 0x00, 0x00,
  0x00, 0x00, 0x00, 0x00, 0x00, 0x00, 0x00, 0x00, 0x00, 0x00, 0x00, 0x00,
  0x01, 0x00, 0x00, 0x00, 0x7f, 0x36, 0x9d, 0x3d, 0x19, 0x00, 0x00, 0x00,
  0x73, 0x65, 0x71, 0x75, 0x65, 0x6e, 0x74, 0x69, 0x61, 0x6c, 0x2f, 0x64,
  0x65, 0x6e, 0x73, 0x65, 0x5f, 0x31, 0x2f, 0x4d, 0x61, 0x74, 0x4d, 0x75,
  0x6c, 0x00, 0x00, 0x00, 0x02, 0x00, 0x00, 0x00, 0x1a, 0x00, 0x00, 0x00,
  0x80, 0x00, 0x00, 0x00, 0x06, 0xff, 0xff, 0xff, 0x00, 0x00, 0x00, 0x01,
  0x10, 0x00, 0x00, 0x00, 0x10, 0x00, 0x00, 0x00, 0x05, 0x00, 0x00, 0x00,
  0x24, 0x00, 0x00, 0x00, 0x78, 0xfe, 0xff, 0xff, 0x17, 0x00, 0x00, 0x00,
  0x73, 0x65, 0x71, 0x75, 0x65, 0x6e, 0x74, 0x69, 0x61, 0x6c, 0x2f, 0x64,
  0x65, 0x6e, 0x73, 0x65, 0x2f, 0x4d, 0x61, 0x74, 0x4d, 0x75, 0x6c, 0x00,
  0x02, 0x00, 0x00, 0x00, 0x80, 0x00, 0x00, 0x00, 0x05, 0x00, 0x00, 0x00,
  0x00, 0x00, 0x16, 0x00, 0x1c, 0x00, 0x18, 0x00, 0x17, 0x00, 0x10, 0x00,
  0x0c, 0x00, 0x08, 0x00, 0x00, 0x00, 0x00, 0x00, 0x00, 0x00, 0x07, 0x00,
  0x16, 0x00, 0x00, 0x00, 0x00, 0x00, 0x00, 0x01, 0x14, 0x00, 0x00, 0x00,
  0x14, 0x00, 0x00, 0x00, 0x04, 0x00, 0x00, 0x00, 0x00, 0x00, 0x00, 0x02,
  0x28, 0x00, 0x00, 0x00, 0xd8, 0xfe, 0xff, 0xff, 0x18, 0x00, 0x00, 0x00,
  0x73, 0x65, 0x71, 0x75, 0x65, 0x6e, 0x74, 0x69, 0x61, 0x6c, 0x2f, 0x66,
  0x6c, 0x61, 0x74, 0x74, 0x65, 0x6e, 0x2f, 0x43, 0x6f, 0x6e, 0x73, 0x74,
  0x00, 0x00, 0x00, 0x00, 0x01, 0x00, 0x00, 0x00, 0x02, 0x00, 0x00, 0x00,
  0xaa, 0xff, 0xff, 0xff, 0x00, 0x00, 0x00, 0x01, 0x10, 0x00, 0x00, 0x00,
  0x10, 0x00, 0x00, 0x00, 0x03, 0x00, 0x00, 0x00, 0x38, 0x00, 0x00, 0x00,
  0x1c, 0xff, 0xff, 0xff, 0x29, 0x00, 0x00, 0x00, 0x73, 0x65, 0x71, 0x75,
  0x65, 0x6e, 0x74, 0x69, 0x61, 0x6c, 0x2f, 0x64, 0x65, 0x6e, 0x73, 0x65,
  0x5f, 0x31, 0x2f, 0x42, 0x69, 0x61, 0x73, 0x41, 0x64, 0x64, 0x2f, 0x52,
  0x65, 0x61, 0x64, 0x56, 0x61, 0x72, 0x69, 0x61, 0x62, 0x6c, 0x65, 0x4f,
  0x70, 0x00, 0x00, 0x00, 0x01, 0x00, 0x00, 0x00, 0x1a, 0x00, 0x00, 0x00,
  0x00, 0x00, 0x16, 0x00, 0x18, 0x00, 0x14, 0x00, 0x00, 0x00, 0x10, 0x00,
  0x0c, 0x00, 0x08, 0x00, 0x00, 0x00, 0x00, 0x00, 0x00, 0x00, 0x07, 0x00,
  0x16, 0x00, 0x00, 0x00, 0x00, 0x00, 0x00, 0x01, 0x10, 0x00, 0x00, 0x00,
  0x10, 0x00, 0x00, 0x00, 0x02, 0x00, 0x00, 0x00, 0x34, 0x00, 0x00, 0x00,
  0x88, 0xff, 0xff, 0xff, 0x27, 0x00, 0x00, 0x00, 0x73, 0x65, 0x71, 0x75,
  0x65, 0x6e, 0x74, 0x69, 0x61, 0x6c, 0x2f, 0x64, 0x65, 0x6e, 0x73, 0x65,
  0x2f, 0x42, 0x69, 0x61, 0x73, 0x41, 0x64, 0x64, 0x2f, 0x52, 0x65, 0x61,
  0x64, 0x56, 0x61, 0x72, 0x69, 0x61, 0x62, 0x6c, 0x65, 0x4f, 0x70, 0x00,
  0x01, 0x00, 0x00, 0x00, 0x80, 0x00, 0x00, 0x00, 0x00, 0x00, 0x16, 0x00,
  0x1c, 0x00, 0x18, 0x00, 0x00, 0x00, 0x14, 0x00, 0x10, 0x00, 0x0c, 0x00,
  0x00, 0x00, 0x00, 0x00, 0x08, 0x00, 0x07, 0x00, 0x16, 0x00, 0x00, 0x00,
  0x00, 0x00, 0x00, 0x01, 0x14, 0x00, 0x00, 0x00, 0x20, 0x00, 0x00, 0x00,
  0x20, 0x00, 0x00, 0x00, 0x01, 0x00, 0x00, 0x00, 0x3c, 0x00, 0x00, 0x00,
  0x02, 0x00, 0x00, 0x00, 0xff, 0xff, 0xff, 0xff, 0x05, 0x00, 0x00, 0x00,
  0x04, 0x00, 0x04, 0x00, 0x04, 0x00, 0x00, 0x00, 0x1f, 0x00, 0x00, 0x00,
  0x73, 0x65, 0x72, 0x76, 0x69, 0x6e, 0x67, 0x5f, 0x64, 0x65, 0x66, 0x61,
  0x75, 0x6c, 0x74, 0x5f, 0x66, 0x6c, 0x61, 0x74, 0x74, 0x65, 0x6e, 0x5f,
  0x69, 0x6e, 0x70, 0x75, 0x74, 0x3a, 0x30, 0x00, 0x02, 0x00, 0x00, 0x00,
  0x01, 0x00, 0x00, 0x00, 0x05, 0x00, 0x00, 0x00, 0x03, 0x00, 0x00, 0x00,
  0x40, 0x00, 0x00, 0x00, 0x20, 0x00, 0x00, 0x00, 0x04, 0x00, 0x00, 0x00,
  0xd8, 0xff, 0xff, 0xff, 0x19, 0x00, 0x00, 0x00, 0x00, 0x00, 0x00, 0x19,
  0x0c, 0x00, 0x10, 0x00, 0x0f, 0x00, 0x00, 0x00, 0x08, 0x00, 0x04, 0x00,
  0x0c, 0x00, 0x00, 0x00, 0x09, 0x00, 0x00, 0x00, 0x09, 0x00, 0x00, 0x00,
  0x00, 0x00, 0x00, 0x09, 0x0c, 0x00, 0x0c, 0x00, 0x0b, 0x00, 0x00, 0x00,
  0x00, 0x00, 0x04, 0x00, 0x0c, 0x00, 0x00, 0x00, 0x16, 0x00, 0x00, 0x00,
  0x00, 0x00, 0x00, 0x16
};
unsigned int asl_training_model1_tflite_len = 8560;
